{"<s>":0,"<pad>":1,"</s>":2,"<unk>":3,"<mask>":4,"<sep>":5,"!":6,"\"":7,"#":8,"$":9,"%":10,"&":11,"'":12,"(":13,")":14,"*":15,"+":16,",":17,"-":18,".":19,"/":20,"0":21,"1":22,"2":23,"3":24,"4":25,"5":26,"6":27,"7":28,"8":29,"9":30,":":31,";":32,"<":33,"=":34,">":35,"?":36,"@":37,"A":38,"B":39,"C":40,"D":41,"E":42,"F":43,"G":44,"H":45,"I":46,"J":47,"K":48,"L":49,"M":50,"N":51,"O":52,"P":53,"Q":54,"R":55,"S":56,"T":57,"U":58,"V":59,"W":60,"X":61,"Y":62,"Z":63,"[":64,"\\":65,"]":66,"^":67,"_":68,"`":69,"a":70,"b":71,"c":72,"d":73,"e":74,"f":75,"g":76,"h":77,"i":78,"j":79,"k":80,"l":81,"m":82,"n":83,"o":84,"p":85,"q":86,"r":87,"s":88,"t":89,"u":90,"v":91,"w":92,"x":93,"y":94,"z":95,"{":96,"|":97,"}":98,"~":99,"¡":100,"¢":101,"£":102,"¤":103,"¥":104,"¦":105,"§":106,"¨":107,"©":108,"ª":109,"«":110,"¬":111,"®":112,"¯":113,"°":114,"±":115,"²":116,"³":117,"´":118,"µ":119,"¶":120,"·":121,"¸":122,"¹":123,"º":124,"»":125,"¼":126,"½":127,"¾":128,"¿":129,"À":130,"Á":131,"Â":132,"Ã":133,"Ä":134,"Å":135,"Æ":136,"Ç":137,"È":138,"É":139,"Ê":140,"Ë":141,"Ì":142,"Í":143,"Î":144,"Ï":145,"Ð":146,"Ñ":147,"Ò":148,"Ó":149,"Ô":150,"Õ":151,"Ö":152,"×":153,"Ø":154,"Ù":155,"Ú":156,"Û":157,"Ü":158,"Ý":159,"Þ":160,"ß":161,"à":162,"á":163,"â":164,"ã":165,"ä":166,"å":167,"æ":168,"ç":169,"è":170,"é":171,"ê":172,"ë":173,"ì":174,"í":175,"î":176,"ï":177,"ð":178,"ñ":179,"ò":180,"ó":181,"ô":182,"õ":183,"ö":184,"÷":185,"ø":186,"ù":187,"ú":188,"û":189,"ü":190,"ý":191,"þ":192,"ÿ":193,"Ā":194,"ā":195,"Ă":196,"ă":197,"Ą":198,"ą":199,"Ć":200,"ć":201,"Ĉ":202,"ĉ":203,"Ċ":204,"ċ":205,"Č":206,"č":207,"Ď":208,"ď":209,"Đ":210,"đ":211,"Ē":212,"ē":213,"Ĕ":214,"ĕ":215,"Ė":216,"ė":217,"Ę":218,"ę":219,"Ě":220,"ě":221,"Ĝ":222,"ĝ":223,"Ğ":224,"ğ":225,"Ġ":226,"ġ":227,"Ģ":228,"ģ":229,"Ĥ":230,"ĥ":231,"Ħ":232,"ħ":233,"Ĩ":234,"ĩ":235,"Ī":236,"ī":237,"Ĭ":238,"ĭ":239,"Į":240,"į":241,"İ":242,"ı":243,"Ĳ":244,"ĳ":245,"Ĵ":246,"ĵ":247,"Ķ":248,"ķ":249,"ĸ":250,"Ĺ":251,"ĺ":252,"Ļ":253,"ļ":254,"Ľ":255,"ľ":256,"Ŀ":257,"ŀ":258,"Ł":259,"ł":260,"Ń":261,"Ġt":262,"he":263,"Ġa":264,"in":265,"Ġthe":266,"er":267,"on":268,"Ġ,":269,"re":270,"Ġs":271,"Ġo":272,"Ġw":273,"ed":274,"un":275,"Ġ.":276,"at":277,"nd":278,"or":279,"Ġc":280,"it":281,"Ġf":282,"en":283,"is":284,"Ġof":285,"es":286,"Ġb":287,"Ġin":288,"ar":289,"unk":290,"an":291,"Ġ<":292,"al":293,"Ġand":294,"Ġp":295,"ing":296,"as":297,"Ġto":298,"Ġm":299,"ro":300,"ic":301,"Ġd":302,"Ġh":303,"ion":304,"le":305,"ĠT":306,"Ġ=":307,"Ġre":308,"Ġ\"":309,"Ġth":310,"ent":311,"ou":312,"ĠA":313,"Ġ1":314,"il":315,"ĠS":316,"st":317,"Ġl":318,"om":319,"Ġe":320,"Ġn":321,"Ġ@":322,"am":323,"ĠC":324,"el":325,"ad":326,"Ġwas":327,"ac":328,"ĠThe":329,"Ġon":330,"Ġbe":331,"ur":332,"ly":333,"ĠM":334,"Ġ'":335,"ĠI":336,"Ġg":337,"Ġfor":338,"iv":339,"ol":340,"ter":341,"ĠB":342,"-@":343,"Ġ@-@":344,"im":345,"id":346,"ir":347,"Ġas":348,"ct":349,"ig":350,"th":351,"ow":352,"ith":353,"Ġst":354,"ĠH":355,"us":356,"Ġ2":357,"ay":358,"Ġthat":359,"Ġwith":360,"her":361,"ot":362,"ce":363,"ver":364,"ut":365,"ation":366,"et":367,"ĠĠ":368,"Ġis":369,"ĠP":370,"Ġwh":371,"ch":372,"Ġby":373,"ĠR":374,"Ġ)":375,"Ġ(":376,"Ġal":377,"ĠF":378,"ĠD":379,"Ġcon":380,"em":381,"ul":382,"ĠW":383,"Ġat":384,"Ġit":385,"Ġ19":386,"and":387,"ain":388,"rom":389,"os":390,"ĠN":391,"Ġan":392,"ĠG":393,"ĠL":394,"ers":395,"Ġhe":396,"est":397,"ag":398,"av":399,"00":400,"ĠJ":401,"Ġse":402,"um":403,"Ġde":404,"Ġhis":405,"Ġr":406,"Ġfrom":407,"od":408,"ĠO":409,"ri":410,"Ġcom":411,"ĠE":412,"pe":413,"und":414,"ist":415,"Ġpro":416,"if":417,"ld":418,"ies":419,"ere":420,"ort":421,"Ġv":422,"res":423,"Ġsu":424,"ore":425,"Ġwere":426,"ill":427,"ĠIn":428,"ap":429,"ong":430,"ew":431,"op":432,"igh":433,"ich":434,"Ġor":435,"ate":436,"art":437,"all":438,"ard":439,"ak":440,"Ġch":441,"ber":442,"ame":443,"Ġex":444,"gh":445,"ab":446,"ud":447,"Ġpl":448,"se":449,"ated":450,"ant":451,"ity":452,"Ġare":453,"Ġâ":454,"oc":455,"ive":456,"ess":457,"qu":458,"Ġsh":459,"ĠâĢ":460,"Ġhad":461,"Ġk":462,"ack":463,"Ġwhich":464,"up":465,"ĠU":466,"red":467,"Ġy":468,"ĠK":469,"Ġle":470,"ov":471,"our":472,"Ġnot":473,"ment":474,"ast":475,"ip":476,"ĠSt":477,"rit":478,"ord":479,"ear":480,"pt":481,"Ġtr":482,"ge":483,"ally":484,"ian":485,"ther":486,"ost":487,"ine":488,"ave":489,"ight":490,"oun":491,"ell":492,"Ġ3":493,"ish":494,"cl":495,"ary":496,"ĠCh":497,"Ġ200":498,"ust":499,"irst":500,"ia":501,"Ġ;":502,"pp":503,"te":504,"Ġcomp":505,"Ġtheir":506,"Ġbut":507,"cc":508,"so":509,"ction":510,"fter":511,"Ġfirst":512,"ous":513,"ure":514,"Ġits":515,"ould":516,"ra":517,"ĠâĢĵ":518,"ide":519,"Ġwhe":520,"Ġcont":521,"Ġar":522,"ue":523,"ical":524,"ome":525,"Ġun":526,"wo":527,"og":528,"hed":529,"Ġ20":530,"Ġ:":531,"ial":532,"ub":533,"ie":534,"Ġher":535,"Ġalso":536,"ition":537,"Ġro":538,"Ġint":539,"ĠV":540,"own":541,"Ġcl":542,"ater":543,"out":544,"ign":545,"Ġus":546,"orm":547,"ork":548,"Ġab":549,"Ġad":550,"ok":551,"ff":552,"per":553,"Ġhave":554,"age":555,"ru":556,"ire":557,"ĠHe":558,"Ġone":559,"ass":560,"Ġhas":561,"Ġrec":562,"low":563,"mer":564,"ime":565,"Ġbeen":566,"Ġtwo":567,"Ġ4":568,"du":569,"Ġres":570,"ĠTh":571,"Ġ18":572,".@":573,"Ġ@.@":574,"Ġper":575,"ond":576,"Ġ5":577,"ree":578,"Ġbo":579,"Ġwho":580,"ence":581,"uring":582,"ough":583,"land":584,"ted":585,"Ġthis":586,"are":587,"Ġbec":588,"ile":589,"ry":590,"pl":591,"ory":592,"ance":593,"ugh":594,"ect":595,"ĠIt":596,"ans":597,"Ġsc":598,"Ġplay":599,"ĠAl":600,"Ġthey":601,"clud":602,"Ġyear":603,"Ġ201":604,"Ġpart":605,"Ġag":606,"ade":607,"Ġdes":608,"ations":609,"Ġman":610,"ric":611,"Ġother":612,"Ġdis":613,"ult":614,"Ġte":615,"ely":616,"Ġafter":617,"ach":618,"Ġj":619,"Ġser":620,"Ġover":621,"over":622,"Ġoff":623,"Ġup":624,",@":625,"Ġ@,@":626,"ang":627,"Ġinclud":628,"Ġsp":629,"ions":630,"Ġen":631,"ite":632,"urn":633,"act":634,"ound":635,"ount":636,"Ġim":637,"ace":638,"ice":639,"iz":640,"ib":641,"wn":642,"Ġout":643,"ke":644,"ress":645,"ĠY":646,"ark":647,"Ġtime":648,"Ġne":649,"Ġinto":650,"Ġfin":651,"Ġpre":652,"Ġev":653,"ced":654,"port":655,"we":656,"ĠOn":657,"Ġspe":658,"ces":659,"Ġwould":660,"Ġmore":661,"Ġshe":662,"Ġcomm":663,"ason":664,"Ġatt":665,"ward":666,"rough":667,"Ġall":668,"ren":669,"ose":670,"one":671,"ail":672,"ited":673,"Ġhim":674,"amp":675,"Ġwe":676,"tern":677,"ied":678,"ens":679,"oin":680,"ased":681,"Ġ6":682,"ĠUn":683,"Ġcent":684,"rib":685,"ĠRe":686,"Ġwork":687,"ents":688,"ild":689,"ĠSe":690,"ix":691,"Ġme":692,"ood":693,"ase":694,"les":695,"ings":696,"ts":697,"man":698,"round":699,"Ġ7":700,"Ġfe":701,"Ġthem":702,"able":703,"ious":704,"Ġwhen":705,"Ġbet":706,"Ġsong":707,"ake":708,"ors":709,"Ġsec":710,"ates":711,"als":712,"vel":713,"ubl":714,"Ġear":715,"Ġrem":716,"ĠAn":717,"old":718,"iss":719,"ered":720,"Ġkn":721,"form":722,"Ġmost":723,"Ġduring":724,"gan":725,"ath":726,"aus":727,"Ġonly":728,"fer":729,"under":730,"ilm":731,"Ġnew":732,"Ġgame":733,"oy":734,"ved":735,"ember":736,"ve":737,"orth":738,"ollow":739,"ween":740,"Ġ199":741,"reat":742,"ĠAs":743,"way":744,"outh":745,"ĠAr":746,"Ġ9":747,"Ġ8":748,"Ġrel":749,"Ġcan":750,"Ġabout":751,"ters":752,"Ġagain":753,"Ġseason":754,"Ġthree":755,"Ġcons":756,"Ġthan":757,"ĠEn":758,"ick":759,"ug":760,"ĠMar":761,"Ġbetween":762,"att":763,"aw":764,"ral":765,"Ġrecord":766,"Ġsome":767,"ational":768,"Ġunder":769,"ons":770,"Ġchar":771,"cted":772,"ular":773,"fore":774,"Ġthrough":775,"ind":776,"ict":777,"Ġlater":778,"hip":779,"iew":780,"Ġcol":781,"Ġnum":782,"Ġ00":783,"ĠCom":784,"ft":785,"ision":786,"Ġwrit":787,"Ġwhile":788,"ĠDe":789,"Ġprodu":790,"Ġpos":791,"Ġfilm":792,"Ġrele":793,"Ġver":794,"ames":795,"Ġend":796,"Ġinter":797,"ished":798,"Ġap":799,"ey":800,"Ġpe":801,"Ġmade":802,"Ġpr":803,"Ġform":804,"ning":805,"Ġfl":806,"Ġreg":807,"Ġass":808,"orld":809,"Ġwhere":810,"Ġso":811,"Ġspec":812,"ĠNew":813,"Ġmov":814,"ever":815,"meric":816,"ĠAmeric":817,"ury":818,"Ġlar":819,"bum":820,"Ġac":821,"Ġapp":822,"Ġret":823,"ron":824,"Ġfollow":825,"ener":826,"Ġno":827,"Ġbu":828,"Ġsuch":829,"Ġdef":830,"Ġsecond":831,"ived":832,"Ġfour":833,"ock":834,"aid":835,"Ġmus":836,"Ġqu":837,"Ġacc":838,"Ġused":839,"Ġsub":840,"olog":841,"Ġinc":842,"Ġact":843,"ike":844,"ĠAt":845,"rop":846,"Ġday":847,"ĠThis":848,"ars":849,"ĠLe":850,"Ġpubl":851,"ific":852,"Ġam":853,"ual":854,"Ġcall":855,"Ġalbum":856,"Ġind":857,"hes":858,"Ġ000":859,"Ġbefore":860,"Ġdo":861,"Ġappe":862,"ob":863,"ily":864,"oh":865,"Ġbeing":866,"ank":867,"Ġgr":868,"Ġco":869,"any":870,"Ġyears":871,"ĠEng":872,"Ġthere":873,"Ġsupp":874,"Ġgro":875,"end":876,"ck":877,"owever":878,"ating":879,"ane":880,"Ġfound":881,"Ġ0":882,"Ġele":883,"Ġhigh":884,"Ġset":885,"iel":886,"Ġep":887,"ife":888,"ics":889,"orn":890,"hen":891,"Ġsy":892,"ird":893,"Ġent":894,"other":895,"iver":896,"Ġsur":897,"ained":898,"Ġ10":899,"Ġseries":900,"igin":901,"Ġnumber":902,"pen":903,"ten":904,"ll":905,"ince":906,"Ġloc":907,"ause":908,"Ġdec":909,"Ġpres":910,"ph":911,"velop":912,"Ġboth":913,"ode":914,"Ġsever":915,"ities":916,"cept":917,"Ġ12":918,"Ġthen":919,"Ġincluding":920,"ines":921,"Ġepis":922,"son":923,"ĠBrit":924,"Ġ/":925,"Ġagainst":926,"Ġwell":927,"Ġbecame":928,"Ġknown":929,"ject":930,"ĠâĢĶ":931,"ros":932,"ised":933,"Ġpo":934,"ton":935,"Ġcharac":936,"Ġadd":937,"Ġperform":938,"Ġdesc":939,"Ġsing":940,"Ġbl":941,"Ġgo":942,"Ġcap":943,"Ġ198":944,"Ġdire":945,"urch":946,"ĠJoh":947,"aj":948,"Ġ16":949,"ale":950,"Ġback":951,"Ġmany":952,"ĠSh":953,"Ġpop":954,"pr":955,"Ġmain":956,"ident":957,"though":958,"ĠUnited":959,"Ġinv":960,"Ġstud":961,"its":962,"Ġlong":963,"ise":964,"ather":965,"ures":966,"Ġtrans":967,"Ġorigin":968,"io":969,"ĠJohn":970,"ĠBr":971,"iet":972,"ert":973,"ement":974,"Ġcentury":975,"Ġmon":976,"Ġteam":977,"ober":978,"ĠAfter":979,"ool":980,"ĠSc":981,"Ġest":982,"Ġdevelop":983,"Ġshow":984,"ann":985,"Ġmin":986,"ield":987,"ek":988,"ower":989,"Ġem":990,"ier":991,"elf":992,"Ġ194":993,"air":994,"ute":995,"Ġcre":996,"Ġseveral":997,"ĠShe":998,"Ġlead":999,"uch":1000,"Ġ17":1001,"ared":1002,"Ġbegan":1003,"Ġ196":1004,"ful":1005,"ivers":1006,"ĠĠĠ":1007,"ern":1008,"Ġ11":1009,"Ġ15":1010,"Ġmill":1011,"Ġdif":1012,"Ġcontin":1013,"Ġ197":1014,"overn":1015,"Ġsign":1016,"ually":1017,"ram":1018,"view":1019,"Ġsm":1020,"ired":1021,"ative":1022,"Ġmay":1023,"Ġship":1024,"Ġcomple":1025,"Ġbr":1026,"Ġcould":1027,"Ġearly":1028,"Ġcrit":1029,"Ġdid":1030,"Ġcalled":1031,"ains":1032,"Ġart":1033,"Ġepisode":1034,"til":1035,"Ġnear":1036,"Ġob":1037,"ĠInd":1038,"Ġhist":1039,"Ġpol":1040,"Ġdescrib":1041,"led":1042,"Ġbel":1043,"emb":1044,"ued":1045,"Ġrece":1046,"ople":1047,"iam":1048,"une":1049,"Ġalong":1050,"Ġrun":1051,"ins":1052,"Ġter":1053,"imes":1054,"ments":1055,"Ġdep":1056,"Ġbro":1057,"ccess":1058,"Ġsaid":1059,"ley":1060,"ĠWh":1061,"Ġfeat":1062,"ĠAmerican":1063,"Ġdown":1064,"ven":1065,"ĠIs":1066,"Ġinst":1067,"Ġthese":1068,"aking":1069,"ĠMay":1070,"der":1071,"Ġmil":1072,"Ġdist":1073,"ĠAust":1074,"Ġthough":1075,"gest":1076,"ĠGer":1077,"ross":1078,"Ġdisc":1079,"yl":1080,"ĠBritish":1081,"Ġoper":1082,"Ġuntil":1083,"ĠZ":1084,"ove":1085,"ting":1086,"oot":1087,"Ġstart":1088,"anc":1089,"Ġcity":1090,"Ġsame":1091,"rap":1092,"Ġinf":1093,"ured":1094,"Ġprev":1095,"Ġreleased":1096,"els":1097,"Ġgener":1098,"ty":1099,"ange":1100,"Ġexp":1101,"Ġown":1102,"ized":1103,"Ġany":1104,"Ġreturn":1105,"tend":1106,"amed":1107,"ĠThey":1108,"ially":1109,"ĠWar":1110,"Ġkm":1111,"ided":1112,"Ġland":1113,"Ġdesign":1114,"Ġwar":1115,"Ġrep":1116,"Ġmusic":1117,"Ġprov":1118,"Ġimp":1119,"Ġmillion":1120,"Ġbecause":1121,"Ġarea":1122,"Ġuse":1123,"ajor":1124,"ĠCon":1125,"Ġcar":1126,"Ġfam":1127,"Ġair":1128,"az":1129,"ĠAug":1130,"ĠAugust":1131,"oman":1132,"Ġlike":1133,"Ġopen":1134,"Ġsuccess":1135,"Ġmat":1136,"osed":1137,"Ġsim":1138,"ĠFr":1139,"ĠChr":1140,"Ġocc":1141,"erson":1142,"ink":1143,"ep":1144,"enn":1145,"Ġconst":1146,"ook":1147,"Ġpeople":1148,"ull":1149,"Ġeff":1150,"hy":1151,"ium":1152,"Ġins":1153,"Ġpass":1154,"chool":1155,"Ġoffic":1156,"stem":1157,"ible":1158,"xt":1159,"Ġsix":1160,"Ġcount":1161,"Ġ195":1162,"Ġsupport":1163,"ĠBl":1164,"ĠBe":1165,"Ġaround":1166,"my":1167,"ĠHowever":1168,"Ġsmall":1169,"ah":1170,"Ġwin":1171,"Ġ%":1172,"ĠSept":1173,"uc":1174,"Ġnorth":1175,"Ġadv":1176,"Ġdam":1177,"Ġgroup":1178,"Ġstr":1179,"ĠCar":1180,"Ġpoin":1181,"Ġeach":1182,"ĠSeptember":1183,"ues":1184,"ony":1185,"Ġconsid":1186,"Ġmet":1187,"ouse":1188,"Ġfollowing":1189,"ĠPl":1190,"Ġcharacter":1191,"ĠJu":1192,"erv":1193,"ists":1194,"wards":1195,"ĠWorld":1196,"Ġlife":1197,"ms":1198,"Ġed":1199,"ĠAustral":1200,"Ġhead":1201,"Ġ13":1202,"aining":1203,"Ġfive":1204,"Ġmod":1205,"Ġcontro":1206,"Ġgovern":1207,"Ġattack":1208,"ole":1209,"Ġ193":1210,"ording":1211,"ĠComm":1212,"ient":1213,"ales":1214,"Ġvar":1215,"oss":1216,"uth":1217,"ĠAll":1218,"Ġwill":1219,"ĠTe":1220,"Ġlarge":1221,"Ġever":1222,"ution":1223,"ets":1224,"Ġ191":1225,"ĠII":1226,"ĠHer":1227,"Ġgu":1228,"ĠCol":1229,"Ġann":1230,"Ġreport":1231,"row":1232,"Ġconc":1233,"ague":1234,"ural":1235,"ĠUS":1236,"ĠMe":1237,"ĠCl":1238,"rote":1239,"lish":1240,"ĠJune":1241,"Ġbook":1242,"ĠNorth":1243,"aving":1244,"aced":1245,"ĠEu":1246,"ash":1247,"ĠFor":1248,"Ġtit":1249,"ĠGerman":1250,"dom":1251,"Ġsince":1252,"ĠStates":1253,"ik":1254,"Ġprom":1255,"Ġsouth":1256,"Ġreceived":1257,"Ġmajor":1258,"Ġfinal":1259,"ilt":1260,"med":1261,"ped":1262,"Ġname":1263,"ately":1264,"ivision":1265,"ĠJan":1266,"ĠAd":1267,"pect":1268,"ĠOct":1269,"Ġpartic":1270,"Ġsystem":1271,"ĠSouth":1272,"Ġpublic":1273,"Ġcare":1274,"Ġstate":1275,"Ġdr":1276,"ĠChrist":1277,"Ġwhat":1278,"ĠKing":1279,"ives":1280,"Ġdirect":1281,"uary":1282,"Ġlast":1283,"Ġhel":1284,"Ġdescribed":1285,"tle":1286,"hel":1287,"Ġext":1288,"ĠOctober":1289,"ored":1290,"Ġ14":1291,"Ġline":1292,"Ġ$":1293,"Ġappear":1294,"Ġrest":1295,"ĠCan":1296,"Ġbatt":1297,"Ġweek":1298,"Ġplayed":1299,"cess":1300,"Ġclass":1301,"Ġbuild":1302,"Ġincre":1303,"Ġtook":1304,"ropical":1305,"Ġnow":1306,"ĠFe":1307,"ĠNov":1308,"arl":1309,"Ġ[":1310,"Ġ]":1311,"ĠYork":1312,"gin":1313,"Ġworld":1314,"aged":1315,"ĠJuly":1316,"Ġwrote":1317,"Ġlate":1318,"ages":1319,"..":1320,"ĠTr":1321,"iving":1322,"empt":1323,"Ã©":1324,"ional":1325,"ble":1326,"Ġwon":1327,"Ġspecies":1328,"ology":1329,"ideo":1330,"Ġstru":1331,"aim":1332,"Ġchild":1333,"Ġ...":1334,"Ġmuch":1335,"Ġ25":1336,"ĠDuring":1337,"Ġdue":1338,"ody":1339,"ified":1340,"Ġserv":1341,"ĠApr":1342,"Ġsingle":1343,"ĠApril":1344,"Ġcamp":1345,"Ġallow":1346,"ats":1347,"iod":1348,"min":1349,"ĠGu":1350,"Ġshort":1351,"Ġport":1352,"Ġdeath":1353,"Ġvers":1354,"Ġjust":1355,"ball":1356,"Ġty":1357,"Ġmar":1358,"Ġanother":1359,"Ġincluded":1360,"ĠEuro":1361,"Ġposs":1362,"ĠJanuary":1363,"Ġold":1364,"ility":1365,"ively":1366,"Ġstorm":1367,"get":1368,"Ġeven":1369,"Ġdiffer":1370,"Ġgun":1371,"Ġwithin":1372,"ĠEngland":1373,"Ġlist":1374,"ission":1375,"Ġleft":1376,"Ġresult":1377,"ism":1378,"omin":1379,"Ġposition":1380,"Ġnamed":1381,"Ġbased":1382,"Ġestab":1383,"Ġif":1384,"Ġconf":1385,"ants":1386,"Ġarr":1387,"Ġalthough":1388,"Ġvis":1389,"Ġprog":1390,"Ġattempt":1391,"ax":1392,"ont":1393,"Ġ30":1394,"Ġvery":1395,"Ġappro":1396,"ina":1397,"Ġthird":1398,"Ġgames":1399,"by":1400,"ital":1401,"Ġtop":1402,"Ġref":1403,"ĠAnd":1404,"akes":1405,"Ġbelie":1406,"Ġtrack":1407,"ctions":1408,"ĠMarch":1409,"ner":1410,"ple":1411,"Ġlit":1412,"ĠGr":1413,"Ġprevious":1414,"Ġfamily":1415,"ĠMus":1416,"ĠPro":1417,"ĠNovember":1418,"Ġpower":1419,"Ġtri":1420,"Ġreview":1421,"Ġperiod":1422,"Ġevent":1423,"ĠQ":1424,"Ġbest":1425,"Ġhome":1426,"ĠGe":1427,"mber":1428,"Ġway":1429,"ilar":1430,"urric":1431,"Ġschool":1432,"Ġresp":1433,"ĠRo":1434,"ĠEurope":1435,"Ġwater":1436,"ĠHis":1437,"Ġgovernment":1438,"ances":1439,"ograp":1440,"ently":1441,"cember":1442,"Ġexpl":1443,"ĠDecember":1444,"Ġ192":1445,"Ġmen":1446,"ret":1447,"Ġthose":1448,"avy":1449,"raft":1450,"ĠThere":1451,"ĠBy":1452,"ger":1453,"Ġturn":1454,"Ġconstru":1455,"ience":1456,"Ġhum":1457,"Ġplace":1458,"ĠCity":1459,"ulation":1460,"Ġorgan":1461,"Ġsl":1462,"Ġbuilt":1463,"ature":1464,"Ġbre":1465,"pend":1466,"ards":1467,"urther":1468,"Ġgreat":1469,"ians":1470,"ides":1471,"Ġstory":1472,"Ġprote":1473,"Ġcommand":1474,"ached":1475,"Ġkill":1476,"Ġmonth":1477,"ĠWhen":1478,"Ġcolle":1479,"ched":1480,"hest":1481,"Ġsent":1482,"Ġperson":1483,"Ġoriginal":1484,"ript":1485,"iversity":1486,"itary":1487,"Ġmake":1488,"Ġhand":1489,"Ġopp":1490,"eder":1491,"Ġ100":1492,"Ġ2009":1493,"Ġ2010":1494,"Ġmed":1495,"Ġvideo":1496,"ĠNational":1497,"ĠÂ":1498,"Ġ2008":1499,"Ġauth":1500,"Ġrequ":1501,"Ġhal":1502,"ention":1503,"Ġpresent":1504,"oci":1505,"aur":1506,"por":1507,"Ġmark":1508,"Ġph":1509,"Ġsug":1510,"ham":1511,"Ġclub":1512,"Ġeng":1513,"ences":1514,"riend":1515,"iven":1516,"aster":1517,"elt":1518,"ene":1519,"Ġview":1520,"ĠMc":1521,"ically":1522,"self":1523,"ĠRiver":1524,"Ġmoved":1525,"Ġled":1526,"Ġrole":1527,"Ġaddition":1528,"Ġcapt":1529,"Ġstand":1530,"Ġstill":1531,"Ġcame":1532,"Ġleg":1533,"Ġlocal":1534,"Ġiss":1535,"Ġrepl":1536,"rench":1537,"gy":1538,"ense":1539,"ĠPr":1540,"aff":1541,"Ġoften":1542,"Ġhistory":1543,"urricane":1544,"Ġcommon":1545,"Ġcaus":1546,"Ġdest":1547,"ival":1548,"ĠWe":1549,"Ġcour":1550,"ae":1551,"ison":1552,"ĠMan":1553,"Ġdem":1554,"aken":1555,"Ġeffect":1556,"ery":1557,"Ġfew":1558,"be":1559,"ĠBo":1560,"ady":1561,"ĠNo":1562,"ops":1563,"Ġ2007":1564,"Ġnext":1565,"Ġconsidered":1566,"ĠFl":1567,"Ġtrad":1568,"ories":1569,"eng":1570,"Ġplayer":1571,"Ġsuggest":1572,"ling":1573,"lev":1574,"Ġstar":1575,"astern":1576,"ĠSp":1577,"ĠFrench":1578,"Ġexper":1579,"side":1580,"Ġmy":1581,"Ġsimilar":1582,"Ġcareer":1583,"ĠOne":1584,"Ġrecorded":1585,"ĠEnglish":1586,"Ġside":1587,"uss":1588,"Ġright":1589,"ĠPe":1590,"ined":1591,"Ġcr":1592,"Ġinit":1593,"let":1594,"Ġimport":1595,"Ġreal":1596,"ĠOr":1597,"Ġclaim":1598,"que":1599,"ĠBatt":1600,"Ġcompany":1601,"ai":1602,"Ġcover":1603,"Ġpublished":1604,"ĠBro":1605,"Ġdeb":1606,"Ġcontinued":1607,"Ġcontr":1608,"rew":1609,"arn":1610,"idge":1611,"Ġrefer":1612,"Ġyou":1613,"Ġtake":1614,"Ġbas":1615,"Ġwithout":1616,"Ġsold":1617,"Ġmid":1618,"ĠPh":1619,"ternational":1620,"Ġsongs":1621,"Ġdifferent":1622,"Ġsay":1623,"Ġtown":1624,"Ġformer":1625,"ĠWith":1626,"Ġant":1627,"ior":1628,"Ġwind":1629,"Ġheld":1630,"ĠComp":1631,"atter":1632,"ister":1633,"uted":1634,"ĠAcc":1635,"Ġamong":1636,"ness":1637,"Ġmemb":1638,"Ġlevel":1639,"lu":1640,"Ġtot":1641,"Ġarch":1642,"Ġroad":1643,"Ġtem":1644,"Ġpolit":1645,"Ġfield":1646,"ged":1647,"Ġwritten":1648,"arch":1649,"thing":1650,"ĠState":1651,"bs":1652,"Ġplan":1653,"Ġevery":1654,"ps":1655,"Ġes":1656,"ĠPort":1657,"Ġhalf":1658,"alk":1659,"Ġ21":1660,"ĠDivision":1661,"ampions":1662,"Ġtw":1663,"Ġ2011":1664,"Ġrelease":1665,"resent":1666,"ves":1667,"estern":1668,"iment":1669,"ĠWill":1670,"ead":1671,"Ġbecome":1672,"Ġav":1673,"Ġfurther":1674,"Ġmag":1675,"Ġ2006":1676,"Ġcommun":1677,"tended":1678,"ĠAccording":1679,"ĠAlthough":1680,"ensive":1681,"Ġwest":1682,"Ġhowever":1683,"Ġchurch":1684,"Ġ23":1685,"Ġdays":1686,"Ġstrong":1687,"ĠCanad":1688,"yle":1689,"itar":1690,"Ġeast":1691,"Ġfind":1692,"Ġversion":1693,"roy":1694,"lear":1695,"Ġjoin":1696,"ung":1697,"br":1698,"bru":1699,"Ġ&":1700,"ott":1701,"ried":1702,"ĠChurch":1703,"Ġcompet":1704,"Ġtitle":1705,"ĠCount":1706,"Ġparticular":1707,"ne":1708,"pite":1709,"mp":1710,"Ġlow":1711,"Ġmilitary":1712,"Ġpar":1713,"Ġdel":1714,"par":1715,"Ġbeh":1716,"rodu":1717,"ĠRoman":1718,"Ġorder":1719,"ĠLeague":1720,"Ġauthor":1721,"Ġprop":1722,"ĠMin":1723,"Ġdefe":1724,"Ġcontrol":1725,"Ġfoot":1726,"aly":1727,"outher":1728,"ĠSong":1729,"ĠFebru":1730,"outhern":1731,"ĠFebruary":1732,"ĠPer":1733,"ĠGener":1734,"Ġtimes":1735,"fric":1736,"Ġgave":1737,"Ġ22":1738,"Ġless":1739,"Ġ!":1740,"Ġsit":1741,"Ġ26":1742,"Ġreported":1743,"Ġmembers":1744,"Ġfr":1745,"Ġband":1746,"ĠDyl":1747,"Ġvict":1748,"raw":1749,"ĠDylan":1750,"Ġ24":1751,"ots":1752,"Ġchang":1753,"ĠGeor":1754,"Ġfore":1755,"ĠAb":1756,"Ġnort":1757,"Ġproduced":1758,"ches":1759,"Ġ2012":1760,"levision":1761,"Ġprof":1762,"Ġel":1763,"Ġtotal":1764,"augh":1765,"ices":1766,"ĠPark":1767,"ĠOld":1768,"ailed":1769,"ering":1770,"urs":1771,"Ġstat":1772,"ĠWest":1773,"line":1774,"aces":1775,"Ġproduction":1776,"Ġpopular":1777,"iety":1778,"Ġfre":1779,"Ġdecl":1780,"ception":1781,"Ġtropical":1782,"ĠBar":1783,"Ġnov":1784,"ront":1785,"hern":1786,"oung":1787,"Ġproject":1788,"Ġsol":1789,"Ġforces":1790,"ĠJap":1791,"itions":1792,"Ġpoint":1793,"Ġchildren":1794,"ĠJapan":1795,"Ġcur":1796,"Ġcult":1797,"Ġhaving":1798,"ĠPar":1799,"Ġinclude":1800,"reen":1801,"Ġcritic":1802,"Ġobs":1803,"Ġhistor":1804,"pec":1805,"ler":1806,"Ġ28":1807,"Ġinvol":1808,"ĠX":1809,"alion":1810,"Ġlost":1811,"Ġinflu":1812,"Ġgiven":1813,"Ġwant":1814,"ĠAss":1815,"inc":1816,"ression":1817,"Ġcountry":1818,"sh":1819,"Ġtro":1820,"Ġfire":1821,"Ġsignific":1822,"Ġrepresent":1823,"Ġmanag":1824,"ape":1825,"omen":1826,"ize":1827,"Ġ2013":1828,"ĠSim":1829,"chn":1830,"Ġsite":1831,"omet":1832,"Ġseen":1833,"osp":1834,"Ġeight":1835,"ĠDes":1836,"Ġprogram":1837,"Ġmaking":1838,"ĠAm":1839,"vers":1840,"Ġnever":1841,"Ġfar":1842,"ĠMiss":1843,"Ġstated":1844,"Ġestabl":1845,"Ġpress":1846,"Ġdet":1847,"ĠAfric":1848,"Ġcomb":1849,"ĠEd":1850,"ĠGeneral":1851,"Ġbody":1852,"Ġshould":1853,"Ġaff":1854,"ĠCent":1855,"ĠWhile":1856,"Ġmatch":1857,"ither":1858,"Ġfact":1859,"ploy":1860,"Ġreturned":1861,"reet":1862,"ising":1863,"Ġpat":1864,"ĠDav":1865,"ĠUniversity":1866,"rent":1867,"craft":1868,"Ġfem":1869,"enc":1870,"Ġord":1871,"Ġft":1872,"Ġpost":1873,"ĠPol":1874,"ours":1875,"ĠThese":1876,"Ġ190":1877,"ĠAmerica":1878,"ĠEar":1879,"Ġships":1880,"Ġestablished":1881,"Ġsound":1882,"Ġhow":1883,"Ġisland":1884,"sequ":1885,"Ġearl":1886,"ampionship":1887,"Ġpopulation":1888,"Ġannoun":1889,"Ġreached":1890,"Ġequ":1891,"ĠSte":1892,"Ġstruct":1893,"ĠJack":1894,"Ġchart":1895,"Ġ50":1896,"Ġaway":1897,"reland":1898,"Ġsoc":1899,"ades":1900,"ĠIreland":1901,"ably":1902,"Ġnoted":1903,"ĠAir":1904,"igade":1905,"ĠHa":1906,"Ġtoo":1907,"play":1908,"aul":1909,"ope":1910,"Ġfriend":1911,"Ġgod":1912,"Ġground":1913,"Ġthroughout":1914,"Ġacross":1915,"Ġdeveloped":1916,"Ġthought":1917,"Ġlight":1918,"ĠEv":1919,"fic":1920,"ox":1921,"Ġseven":1922,"me":1923,"Ġgen":1924,"Ġ27":1925,"ĠLond":1926,"Ġintrodu":1927,"ĠLondon":1928,"Ġdiv":1929,"Ġusing":1930,"Ġhimself":1931,"ground":1932,"Ġdevelopment":1933,"ĠNe":1934,"ĠWilliam":1935,"Ġgood":1936,"Ġdestroy":1937,"Ġla":1938,"ĠFeder":1939,"ford":1940,"Ġhig":1941,"Ġlim":1942,"aint":1943,"ument":1944,"most":1945,"Ġfelt":1946,"ese":1947,"ĠMich":1948,"Ġsignificant":1949,"used":1950,"reek":1951,"ĠAustralia":1952,"yn":1953,"idence":1954,"ctor":1955,"ological":1956,"Ġperformed":1957,"Ġimportant":1958,"au":1959,"Ġcast":1960,"work":1961,"Ġpra":1962,"amb":1963,"Ġwriting":1964,"ĠAtl":1965,"Ġmiles":1966,"Ġcou":1967,"Ġfather":1968,"arr":1969,"ords":1970,"Ġtelevision":1971,"oon":1972,"Ġide":1973,"int":1974,"ream":1975,"Ġinterest":1976,"ĠBlack":1977,"Ġvarious":1978,"atic":1979,"ivil":1980,"Ġareas":1981,"Ġhuman":1982,"imately":1983,"Ġtour":1984,"Ġnight":1985,"Ġblack":1986,"ones":1987,"Ġfull":1988,"Ġdied":1989,"Ġtyp":1990,"Ġwent":1991,"Ġlook":1992,"utes":1993,"Ġprot":1994,"Ġwat":1995,"Ġwhite":1996,"ĠRich":1997,"Ġrad":1998,"ĠChar":1999,"aren":2000,"Ġactiv":2001,"Ġdoes":2002,"Ġsuccessful":2003,"aign":2004,"ĠRober":2005,"Ġevents":2006,"Ġneed":2007,"ĠReg":2008,"Ġsk":2009,"Ġlaw":2010,"ief":2011,"ĠRoad":2012,"Ġplayers":2013,"Ġstarted":2014,"ges":2015,"ĠRoy":2016,"ĠJames":2017,"Ġmodern":2018,"Ġten":2019,"ask":2020,"Ġmm":2021,"Ġdiscover":2022,"Ġsee":2023,"Ġfeet":2024,"Ġformed":2025,"Ġcor":2026,"itive":2027,"Ġpoem":2028,"tain":2029,"Ġrange":2030,"antic":2031,"Ġconv":2032,"Ġperformance":2033,"ĠCounty":2034,"Ġmix":2035,"Ġhouse":2036,"Ġstyle":2037,"rick":2038,"Ġrelations":2039,"Ġbuilding":2040,"Ġball":2041,"Ġcaused":2042,"Ġcat":2043,"Ġforce":2044,"na":2045,"Ġage":2046,"Ġread":2047,"Ġprim":2048,"Ġput":2049,"ald":2050,"ster":2051,"ration":2052,"ĠEl":2053,"Ġvill":2054,"Ġtrav":2055,"Ġtechn":2056,"ĠYou":2057,"Ġcy":2058,"alth":2059,"Ġcreated":2060,"af":2061,"ael":2062,"ico":2063,"ĠPal":2064,"Ġ189":2065,"Ġofficial":2066,"Ġnovel":2067,"con":2068,"Ġ2004":2069,"Ġsuff":2070,"Ġ2005":2071,"ublic":2072,"Ġentire":2073,"isc":2074,"ĠTo":2075,"ush":2076,"Ġke":2077,"ogn":2078,"Ġable":2079,"Ġpolitical":2080,"ec":2081,"Ġfun":2082,"ourn":2083,"Ġcharacters":2084,"Ġsum":2085,"Ġget":2086,"Ġothers":2087,"Ġrelig":2088,"Ġcoast":2089,"ĠMag":2090,"ĠHigh":2091,"Ġconstruction":2092,"omb":2093,"Ġbird":2094,"Ġbegin":2095,"aves":2096,"abor":2097,"iness":2098,"oll":2099,"Ġoccur":2100,"ring":2101,"Ġson":2102,"Ġpit":2103,"Ġpri":2104,"epend":2105,"Ġcert":2106,"ĠTown":2107,"ĠâĢĻ":2108,"day":2109,"ying":2110,"Ġred":2111,"ĠGl":2112,"ressed":2113,"Ġonce":2114,"ample":2115,"Ġremained":2116,"ĠAng":2117,"Ġlocated":2118,"ination":2119,"rest":2120,"iting":2121,"asing":2122,"ĠCare":2123,"Ġste":2124,"isted":2125,"Ġbecom":2126,"Ġsurv":2127,"Ġpromot":2128,"Ġbattle":2129,"fall":2130,"Ġlik":2131,"Ġnational":2132,"ĠCor":2133,"Ġscored":2134,"Ġworks":2135,"Ġdiffic":2136,"ĠKingdom":2137,"Ġdifficult":2138,"ĠHist":2139,"ected":2140,"Ġproduc":2141,"Ġmeet":2142,"Ġcompleted":2143,"ĠIsland":2144,"ĠAustralian":2145,"Ġcampaign":2146,"Ġtradition":2147,"Ġannounced":2148,"ĠSom":2149,"ĠCal":2150,"Ġrank":2151,"ĠSec":2152,"uck":2153,"Ġstars":2154,"Ġregion":2155,"ator":2156,"Ġfig":2157,"Ġhold":2158,"Ġrock":2159,"Ġguns":2160,"ĠCup":2161,"ĠMor":2162,"ĠCompany":2163,"iers":2164,"rie":2165,"Ġprocess":2166,"Ġlittle":2167,"hem":2168,"Ġfav":2169,"Ġfight":2170,"ĠRec":2171,"Ġhighway":2172,"Ġgoal":2173,"Ġinstead":2174,"Ġhelp":2175,"Ġtre":2176,"ivid":2177,"irc":2178,"Ġpred":2179,"ĠCro":2180,"Ġval":2181,"Ġgrow":2182,"Ġadded":2183,"itted":2184,"ament":2185,"Ġgl":2186,"rought":2187,"Ġcross":2188,"ĠOl":2189,"Ġlet":2190,"Ġleast":2191,"Ġfollowed":2192,"Ġfac":2193,"Ġfront":2194,"Ġredu":2195,"ounc":2196,"Ġ31":2197,"Ġpeak":2198,"Ġappeared":2199,"Ġborn":2200,"Ġrev":2201,"quad":2202,"ĠKe":2203,"Ġknow":2204,"Ġkilled":2205,"leet":2206,"Ġoriginally":2207,"Ġmonths":2208,"Ġer":2209,"reg":2210,"Ġwife":2211,"Ġcomment":2212,"elling":2213,"ĠArmy":2214,"Ġsouthern":2215,"orse":2216,"ĠDavid":2217,"oice":2218,"Ġcas":2219,"Ġloss":2220,"ĠBill":2221,"ĠGrand":2222,"Ġfif":2223,"enced":2224,"ality":2225,"Ġhurricane":2226,"enth":2227,"Ġnuc":2228,"ĠHam":2229,"ries":2230,"Ġwomen":2231,"Ġassoci":2232,"Ġident":2233,"Ġeastern":2234,"Ġagre":2235,"ĠMusic":2236,"bo":2237,"Ġ29":2238,"angu":2239,"Ġrelationship":2240,"Ã¡":2241,"ÃŃ":2242,"Ġmass":2243,"Ġ2003":2244,"Ġcritics":2245,"off":2246,"Ġmother":2247,"ĠSome":2248,"Ġaccom":2249,"ĠFrance":2250,"Ġeventually":2251,"Ġaward":2252,"ĠSup":2253,"acy":2254,"Ġ40":2255,"Ġ185":2256,"Ġfeatures":2257,"gr":2258,"Ġbus":2259,"lect":2260,"idd":2261,"ĠOther":2262,"Ġ2015":2263,"field":2264,"Ġlive":2265,"Ġbroad":2266,"com":2267,"Ġaud":2268,"Ġcond":2269,"Ġanim":2270,"Ġyoung":2271,"ray":2272,"Ġtaken":2273,"Ġcell":2274,"Ġstri":2275,"app":2276,"Ġroute":2277,"Ġrecogn":2278,"Ġappoin":2279,"Ġfourth":2280,"ĠTwo":2281,"Ġserved":2282,"here":2283,"Ġbar":2284,"ully":2285,"ĠEx":2286,"Äģ":2287,"ota":2288,"emy":2289,"Ġestim":2290,"Ġdamage":2291,"Ġprofess":2292,"Ġlack":2293,"Ġheavy":2294,"antry":2295,"arliam":2296,"ique":2297,"inal":2298,"Ġsw":2299,"Ġbase":2300,"Ġeither":2301,"Ġsex":2302,"Ġdecided":2303,"ĠBattalion":2304,"Ġaver":2305,"osaur":2306,"ĠLove":2307,"Ġproble":2308,"Ġvoc":2309,"ĠSw":2310,"olution":2311,"Ġcondom":2312,"Ġcommer":2313,"Ġbehind":2314,"Ġtoget":2315,"aper":2316,"azine":2317,"Ġbelieved":2318,"Ġtogether":2319,"Ġmor":2320,"Ġsepar":2321,"ĠRobert":2322,"chie":2323,"Ġsuper":2324,"Ġarg":2325,"ille":2326,"ĠGod":2327,"ought":2328,"Ġplaying":2329,"ountain":2330,"Ġindivid":2331,"ĠCarey":2332,"arliament":2333,"Ġve":2334,"Ġimpro":2335,"igned":2336,"ization":2337,"lo":2338,"Ġcreat":2339,"Ġexample":2340,"Ġspecial":2341,"ĠRoyal":2342,"ouncil":2343,"ĠMon":2344,"Ġalmost":2345,"Ġclos":2346,"Ġclose":2347,"Ġ188":2348,"Ġmove":2349,"Ġaccept":2350,"ements":2351,"Ġquar":2352,"Ġleading":2353,"hys":2354,"ĠMex":2355,"ĠEuropean":2356,"cial":2357,"mar":2358,"Ġburn":2359,"Ġlangu":2360,"Ġask":2361,"Ġgenerally":2362,"Ġservice":2363,"ĠFederer":2364,"Ġtowards":2365,"Ġmater":2366,"Ġround":2367,"aching":2368,"Ġelements":2369,"Ġopened":2370,"Ġfall":2371,"Ġhy":2372,"Ġarm":2373,"Ġsour":2374,"Ġbrought":2375,"Ġdou":2376,"ĠSer":2377,"urb":2378,"ĠBer":2379,"ĠBrigade":2380,"Ġweeks":2381,"Ġmiss":2382,"Ġnon":2383,"ĠInternational":2384,"Ġfinished":2385,"iction":2386,"Ġce":2387,"Ġcirc":2388,"ĠCr":2389,"ĠIr":2390,"ĠWales":2391,"Ġra":2392,"illa":2393,"rict":2394,"Ġlaun":2395,"Ġsaw":2396,"icated":2397,"ceed":2398,"Ġstudy":2399,"Ġfeatured":2400,"Ġhost":2401,"ĠViet":2402,"Ġrespect":2403,"Ġaircraft":2404,"iation":2405,"Ġregular":2406,"ĠFlor":2407,"Ġdraw":2408,"ida":2409,"Ġenc":2410,"iron":2411,"ests":2412,"Ġvol":2413,"ĠWhite":2414,"Ġgeneral":2415,"Ġpoints":2416,"ned":2417,"read":2418,"Ġrese":2419,"ston":2420,"ĠHen":2421,"etwork":2422,"ĠPart":2423,"ways":2424,"Ġelect":2425,"Ġdirected":2426,"uter":2427,"ze":2428,"ounted":2429,"ĠChampionship":2430,"Ġcentral":2431,"Ġprovided":2432,"hic":2433,"Ġaction":2434,"ordan":2435,"Ġmeas":2436,"val":2437,"Ġfund":2438,"Ġinform":2439,"ĠAct":2440,"ĠSy":2441,"ĠHar":2442,"Ġ35":2443,"Ġupon":2444,"ĠPlay":2445,"Ġdirector":2446,"ography":2447,"iol":2448,"Ġwall":2449,"ĠGame":2450,"Ġmean":2451,"Ġappearance":2452,"eum":2453,"Ġwid":2454,"ĠFollow":2455,"ĠJordan":2456,"umb":2457,"ĠEast":2458,"Ġ186":2459,"Ġcoll":2460,"Ġearlier":2461,"Ġmi":2462,"ĠFrom":2463,"odes":2464,"Ġyard":2465,"ĠThom":2466,"ency":2467,"ĠPres":2468,"Ġsequ":2469,"Ġrather":2470,"Ġking":2471,"Ġ2014":2472,"Ġflood":2473,"Ġfemale":2474,"ĠAtlantic":2475,"bit":2476,"ino":2477,"irl":2478,"Ġindust":2479,"medi":2480,"Ġcurrent":2481,"Ġtroops":2482,"Ġlargest":2483,"Ġvictory":2484,"ĠFollowing":2485,"oring":2486,"Ġren":2487,"Ġreve":2488,"ĠJew":2489,"Ġdev":2490,"Ġsubsequ":2491,"Ġemploy":2492,"Ġoperations":2493,"ĠChristian":2494,"Ġparticularly":2495,"ĠGeorge":2496,"Ġmanager":2497,"ming":2498,"Ġachie":2499,"Ġcost":2500,"ĠMad":2501,"ĠHouse":2502,"ĠDay":2503,"ĠHero":2504,"cher":2505,"oid":2506,"ĠMary":2507,"ude":2508,"ĠRep":2509,"Ġopening":2510,"Ġwanted":2511,"stit":2512,"Ġbeg":2513,"ĠDu":2514,"Ġcondu":2515,"mb":2516,"eler":2517,"ĠRed":2518,"orts":2519,"Ġyards":2520,"Ġevidence":2521,"iber":2522,"Ġcut":2523,"Ġreason":2524,"ouri":2525,"Ġriver":2526,"Ġprob":2527,"Ġexc":2528,"ounter":2529,"ĠCommand":2530,"Ġnorthern":2531,"ĠFlorida":2532,"Ġmember":2533,"Ġstage":2534,"Ġinsp":2535,"cast":2536,"Ġleng":2537,"ĠRock":2538,"ĠStreet":2539,"Ġ500":2540,"Ġoutside":2541,"Ġcrew":2542,"Ġallowed":2543,"Ġpossible":2544,"Ġengine":2545,"oo":2546,"Ġfoc":2547,"Ġbi":2548,"Ġstren":2549,"action":2550,"Ġsaying":2551,"sel":2552,"Ġill":2553,"ĠMed":2554,"ellow":2555,"ĠOliv":2556,"cript":2557,"erous":2558,"atural":2559,"ania":2560,"Ġhit":2561,"Ġhours":2562,"Ġwhom":2563,"west":2564,"Ġcase":2565,"anch":2566,"ential":2567,"Ġnomin":2568,"conom":2569,"ators":2570,"Ġfort":2571,"Ġdeter":2572,"Ġexist":2573,"Ġ2001":2574,"Ġworked":2575,"Ġregard":2576,"ĠMissouri":2577,"alt":2578,"ĠMost":2579,"ĠOd":2580,"Ġpract":2581,"Ġstreng":2582,"eal":2583,"atin":2584,"Ġmot":2585,"ama":2586,"ĠBra":2587,"Ġworking":2588,"Ġterrit":2589,"Ġrespons":2590,"Ġlength":2591,"cent":2592,"nder":2593,"ĠMy":2594,"Ġnews":2595,"Ġreb":2596,"osition":2597,"ĠGal":2598,"artment":2599,"Ġdefend":2600,"board":2601,"Ġmaterial":2602,"ata":2603,"Ġbur":2604,"Ġmach":2605,"Ġgold":2606,"Ġpoor":2607,"Ġdesigned":2608,"Ġfree":2609,"Ġlove":2610,"ĠBay":2611,"ĠPaul":2612,"Ġseem":2613,"ump":2614,"Ġrul":2615,"Ġneg":2616,"ĠTech":2617,"thod":2618,"Ġstay":2619,"ĠWal":2620,"anding":2621,"Ġpraised":2622,"uel":2623,"ĠCo":2624,"ĠMark":2625,"Ġforced":2626,"ĠFirst":2627,"ights":2628,"ishing":2629,"Ġremains":2630,"ĠIndian":2631,"Ġavail":2632,"Ġfootball":2633,"ores":2634,"ĠBest":2635,"Ġ187":2636,"Ġ1970":2637,"ĠPhil":2638,"Ġbill":2639,"ana":2640,"Ġthink":2641,"Ġstation":2642,"Ġwinds":2643,"ĠMichael":2644,"less":2645,"Ġtreat":2646,"Ġcop":2647,"ĠWil":2648,"Ġquick":2649,"Ġgoals":2650,"Ġincreased":2651,"Ġcontract":2652,"heast":2653,"ened":2654,"Ġpast":2655,"Ġdi":2656,"aps":2657,"Ġpreviously":2658,"ĠÂ£":2659,"ius":2660,"vest":2661,"ica":2662,"Ġgre":2663,"ago":2664,"ĠEgy":2665,"Ġabove":2666,"Ġreplaced":2667,"ĠEgypt":2668,"gg":2669,"ule":2670,"xas":2671,"ĠCap":2672,"ĠBut":2673,"vert":2674,"Ġsoon":2675,"Ġinvest":2676,"ĠRichard":2677,"Ġcivil":2678,"Ġly":2679,"ĠBus":2680,"Ġviol":2681,"ĠDespite":2682,"Ġbusiness":2683,"Ġhon":2684,"Ġinterview":2685,"Ġmer":2686,"Ġthreat":2687,"ession":2688,"Ġ2000":2689,"ributed":2690,"Ġwriter":2691,"ĠÂ°":2692,"Ġcommercial":2693,"ĠHenry":2694,"erved":2695,"asion":2696,"Ġmph":2697,"irth":2698,"ĠHill":2699,"Ġunits":2700,"hens":2701,"ĠCanada":2702,"Ġestimated":2703,"Ġclear":2704,"ara":2705,"ĠSan":2706,"Ġ1990":2707,"Ġaccount":2708,"anned":2709,"ĠQue":2710,"Ġesc":2711,"Ġquarter":2712,"Ġsomet":2713,"Ġpain":2714,"ĠKh":2715,"Ġclaimed":2716,"Ġjoined":2717,"ĠJapanese":2718,"Ġhighest":2719,"uation":2720,"Ġtrib":2721,"utive":2722,"Ġplaced":2723,"Ġspecific":2724,"Ġsurf":2725,"ĠBrown":2726,"ĠOldham":2727,"Ġinvolved":2728,"wh":2729,"ye":2730,"Ġz":2731,"Ġmust":2732,"ĠTimes":2733,"Ġlo":2734,"Ġsigned":2735,"Ġdiscuss":2736,"Ġsuggested":2737,"ĠPresident":2738,"ĠTor":2739,"ĠVir":2740,"Ġparts":2741,"ĠDep":2742,"Ġcourt":2743,"Ġwestern":2744,"oms":2745,"ett":2746,"Ġintens":2747,"Ġ183":2748,"ĠOlivier":2749,"BC":2750,"iter":2751,"Ġproper":2752,"Ġleague":2753,"clus":2754,"Ġitself":2755,"Ġpriv":2756,"ĠCarol":2757,"ĠVietn":2758,"lic":2759,"Ġpers":2760,"ĠDr":2761,"ĠWhe":2762,"ĠLater":2763,"istic":2764,"wood":2765,"Ġobject":2766,"ĠIndia":2767,"Ġaverage":2768,"ĠMexico":2769,"tt":2770,"Ġtaking":2771,"thlet":2772,"Ġchange":2773,"Ġshot":2774,"ĠArab":2775,"Ġavailable":2776,"ington":2777,"ĠSchool":2778,"olic":2779,"osing":2780,"ĠGovern":2781,"Ġcome":2782,"Ġscene":2783,"ĠMcC":2784,"Ġintroduced":2785,"Ġcycl":2786,"ving":2787,"Ġfly":2788,"ĠIm":2789,"Ġwhose":2790,"Ġrecording":2791,"Ġtransport":2792,"Ġterm":2793,"Ġvillage":2794,"now":2795,"ita":2796,"Ġinj":2797,"Ġhous":2798,"ĠCong":2799,"achel":2800,"Ġheav":2801,"ĠVal":2802,"Ġtransfer":2803,"Ġbrother":2804,"ĠThomas":2805,"bor":2806,"nes":2807,"ximately":2808,"ĠHall":2809,"ĠVar":2810,"Ġreligious":2811,"ĠIrish":2812,"ready":2813,"Ġpen":2814,"lected":2815,"Ġrace":2816,"quar":2817,"ibility":2818,"Ġbreak":2819,"porary":2820,"Ġtravel":2821,"AF":2822,"band":2823,"onst":2824,"Ġslow":2825,"Ġtold":2826,"Ġdon":2827,"Ġnetwork":2828,"acing":2829,"ĠPac":2830,"Ġ36":2831,"ĠBritain":2832,"Ġshows":2833,"Ġ1960":2834,"Ġdamaged":2835,"rated":2836,"Ġ-":2837,"Ġnames":2838,"ĠCard":2839,"Ġstop":2840,"ĠHel":2841,"Ġrail":2842,"pected":2843,"Ġexec":2844,"abit":2845,"Ġremov":2846,"Ġincreasing":2847,"Ġturned":2848,"ĠRepublic":2849,"Ġmult":2850,"Ġlines":2851,"Ġgive":2852,"ĠHurricane":2853,"ĠThat":2854,"Ġsubject":2855,"Ġnine":2856,"ĠMany":2857,"ĠGreat":2858,"Ġdespite":2859,"ĠScient":2860,"Ġnearly":2861,"ĠGuitar":2862,"Ġappointed":2863,"Ġsize":2864,"Ġpie":2865,"ĠSm":2866,"ĠNot":2867,"oney":2868,"Ġfeel":2869,"Ġcomplet":2870,"ĠZeal":2871,"Ġcommunity":2872,"Ġstructure":2873,"ĠZealand":2874,"Ġ?":2875,"Ġop":2876,"Ġphys":2877,"Ġdate":2878,"Ġhard":2879,"ĠSun":2880,"Ġeconom":2881,"elled":2882,"Ġdiss":2883,"Ġindepend":2884,"Ġsurround":2885,"Ġpassed":2886,"Ġeduc":2887,"ault":2888,"Ġinternational":2889,"Ġpur":2890,"ĠMac":2891,"iding":2892,"ĠNY":2893,"ĠGold":2894,"ruction":2895,"ĠUnion":2896,"ronic":2897,"Ġestablish":2898,"Ġliter":2899,"Ġinitially":2900,"pecially":2901,"Ġcertain":2902,"head":2903,"Ġwithd":2904,"Ġalready":2905,"Ġ184":2906,"Ġimmedi":2907,"Ġgrad":2908,"Ġgoing":2909,"Ġsocial":2910,"Ġfailed":2911,"Ġmight":2912,"ĠAc":2913,"ĠRou":2914,"ume":2915,"Ġdeal":2916,"Ġrap":2917,"Ġchap":2918,"ĠChines":2919,"Ġdisplay":2920,"Ġ60":2921,"Ġassist":2922,"anna":2923,"Ġwinning":2924,"Ġarchae":2925,"ĠEarly":2926,"ĠChinese":2927,"Ġstates":2928,"ĠEver":2929,"Ġtraining":2930,"hedral":2931,"Ġ45":2932,"Ġscore":2933,"Ġaccording":2934,"Ġcapital":2935,"Ġoccup":2936,"Ġtype":2937,"Ġespecially":2938,"Ġlanguage":2939,"Ġprobably":2940,"ĠPacific":2941,"Ġfood":2942,"arily":2943,"Ġdoc":2944,"ĠMont":2945,"ĠEm":2946,"iff":2947,"Ġ2002":2948,"Ġminor":2949,"ĠColle":2950,"Ġissue":2951,"Ġdebut":2952,"Ġforest":2953,"for":2954,"Ġtest":2955,"Ġwood":2956,"Ġfut":2957,"aled":2958,"Ġmale":2959,"Ġdaugh":2960,"urt":2961,"ĠPre":2962,"Ġstudio":2963,"ĠIII":2964,"ties":2965,"Ġtow":2966,"ĠMos":2967,"Ġconn":2968,"ĠOs":2969,"Ġincludes":2970,"Ġspent":2971,"Ġarrived":2972,"Ġordered":2973,"ĠHistory":2974,"ĠWheeler":2975,"ĠÃ":2976,"ĠAg":2977,"ĠAwards":2978,"ĠSl":2979,"ĠFilm":2980,"ĠJin":2981,"Ġarmy":2982,"Ġenough":2983,"Ġremaining":2984,"Ġparticip":2985,"Ġvisit":2986,"ĠCanadian":2987,"onse":2988,"Ġfail":2989,"Ġmem":2990,"ĠCath":2991,"Ġforward":2992,"ĠNavy":2993,"odies":2994,"Ġmixed":2995,"Ġsometimes":2996,"atory":2997,"Ġcru":2998,"ula":2999,"ĠUK":3000,"Ġcomplete":3001,"Ġapproximately":3002,"Ġreviews":3003,"Ġrequired":3004,"ĠPeter":3005,"fect":3006,"nel":3007,"aries":3008,"Ġpot":3009,"Ġlatter":3010,"ĠCreek":3011,"ays":3012,"ĠRes":3013,"ulated":3014,"ilities":3015,"ĠSing":3016,"ĠRose":3017,"ĠDon":3018,"Ġrain":3019,"Ġabs":3020,"Ġcenter":3021,"Ġremain":3022,"ference":3023,"ĠAssoci":3024,"ĠAfrica":3025,"Ġbeginning":3026,"hib":3027,"ulf":3028,"ĠLaw":3029,"Ġblock":3030,"ĠAngel":3031,"eth":3032,"tation":3033,"Ġlower":3034,"ateg":3035,"Ġdecision":3036,"Ġanti":3037,"Ġlimited":3038,"enes":3039,"Ġdro":3040,"ste":3041,"chol":3042,"Ġusually":3043,"ĠArt":3044,"Ġadditional":3045,"Ġchanges":3046,"ĠRegiment":3047,"ites":3048,"Ġden":3049,"ĠMo":3050,"ĠRachel":3051,"ĠJer":3052,"rian":3053,"Ġjourn":3054,"Ġbetter":3055,"Ġindic":3056,"Ġpresident":3057,"Ġrunning":3058,"Ġresponse":3059,"ĠVirgin":3060,"itz":3061,"ĠSoc":3062,"Ġkey":3063,"Ġpositive":3064,"Ġended":3065,"Ġlarger":3066,"Ġstudents":3067,"ĠSuper":3068,"Ġwoman":3069,"Ġmention":3070,"ĠNort":3071,"Ġdead":3072,"Ġsupported":3073,"Ġmagazine":3074,"quadron":3075,"Ġtouch":3076,"ĠAward":3077,"lymp":3078,"ĠPenn":3079,"ĠOlymp":3080,"Ġnotes":3081,"ĠStud":3082,"rics":3083,"ĠScott":3084,"Ġpolice":3085,"Ġdepression":3086,"Ġpressure":3087,"Ġwide":3088,"Ġcal":3089,"aval":3090,"ĠVer":3091,"Ġpoet":3092,"ĠCharles":3093,"Ġbirds":3094,"gl":3095,"tr":3096,"edy":3097,"enty":3098,"Ġshown":3099,"Ġ1995":3100,"Ġquest":3101,"Ġprevent":3102,"ĠBillboard":3103,"ases":3104,"aph":3105,"aker":3106,"Ġspace":3107,"Ġrelated":3108,"Ġfuture":3109,"back":3110,"Ġ38":3111,"Ġ1980":3112,"Ġprovide":3113,"Ġdefeated":3114,"Ġfifth":3115,"go":3116,"rd":3117,"uf":3118,"Ġface":3119,"arm":3120,"Ġhom":3121,"ĠTV":3122,"ĠTom":3123,"stant":3124,"ĠPri":3125,"uments":3126,"Ġdiscovered":3127,"ih":3128,"leg":3129,"ĠTer":3130,"owl":3131,"Ġstaff":3132,"ĠFort":3133,"Ġsyn":3134,"Ġfeature":3135,"Ġtemper":3136,"ĠRoute":3137,"men":3138,"ss":3139,"Ġanc":3140,"Ġ80":3141,"Ġprior":3142,"Ġbecoming":3143,"co":3144,"uals":3145,"Ġaut":3146,"Ġbirth":3147,"Ġdoll":3148,"ids":3149,"irt":3150,"ands":3151,"ifa":3152,"mitted":3153,"Ġcm":3154,"ĠWestern":3155,"Ġsection":3156,"ĠOff":3157,"riage":3158,"Ġexam":3159,"Ġsmaller":3160,"Ġfrequ":3161,"gely":3162,"inct":3163,"onc":3164,"Ġintended":3165,"ĠApp":3166,"idents":3167,"bert":3168,"aby":3169,"Ġscreen":3170,"Ġdisp":3171,"Ġgroups":3172,"Ġidea":3173,"ĠScientology":3174,"aring":3175,"Ġconclud":3176,"ĠInf":3177,"ishop":3178,"Ġpercent":3179,"Ġthemsel":3180,"Ġmostly":3181,"ĠFrank":3182,"Ġmetres":3183,"ĠHaifa":3184,"stein":3185,"Ġthemselves":3186,"aut":3187,"ney":3188,"orial":3189,"Ġfleet":3190,"anies":3191,"ĠTur":3192,"ĠHot":3193,"agon":3194,"quare":3195,"ĠStar":3196,"Ġ2016":3197,"ĠYear":3198,"Ġminutes":3199,"Ġcaptured":3200,"Ġreferred":3201,"Ġlikely":3202,"Ġresearch":3203,"Ġsurface":3204,"Ġword":3205,"Ġfir":3206,"enon":3207,"Ġdomin":3208,"ĠSince":3209,"ching":3210,"ĠLa":3211,"iforn":3212,"Ġoffice":3213,"Ġlargely":3214,"Ġmusical":3215,"rief":3216,"ĠCroat":3217,"Ġprofessional":3218,"Ġproblems":3219,"ĠAssociation":3220,"down":3221,"Ġflow":3222,"ĠParliament":3223,"ĠFI":3224,"ĠLight":3225,"rael":3226,"Ġ75":3227,"Ġentered":3228,"Ġmedia":3229,"ee":3230,"gar":3231,"Ġsem":3232,"Ġmakes":3233,"Ġcontem":3234,"Ġmoving":3235,"Ġamount":3236,"Ġbroadcast":3237,"ners":3238,"Ġcer":3239,"Ġder":3240,"ĠSov":3241,"omm":3242,"Ġlearn":3243,"Ġcontains":3244,"Ġemb":3245,"Ġconstructed":3246,"ĠPortug":3247,"Ġradio":3248,"quarters":3249,"gu":3250,"uk":3251,"Ã³":3252,"oul":3253,"Ġlink":3254,"ĠOper":3255,"sec":3256,"Ġens":3257,"Ġ1999":3258,"Ġkeep":3259,"Ġsummer":3260,"ĠCaliforn":3261,"bers":3262,"ises":3263,"Ġpair":3264,"Ġmoney":3265,"acted":3266,"ĠRuss":3267,"ĠJe":3268,"pped":3269,"ples":3270,"Ġguitar":3271,"Ġeffects":3272,"Ġcele":3273,"ios":3274,"to":3275,"ville":3276,"ergy":3277,"itte":3278,"isions":3279,"anish":3280,"Ġnature":3281,"ĠCouncil":3282,"Ġstories":3283,"ĠHow":3284,"cean":3285,"Ġsea":3286,"Ġvoice":3287,"Ġgrant":3288,"ĠIsrael":3289,"Ġ1950":3290,"Ġmajority":3291,"Ġlisted":3292,"Ġobserv":3293,"ĠEarth":3294,"Ġranked":3295,"ĠJewish":3296,"uz":3297,"Ġself":3298,"Ġparen":3299,"Ġlay":3300,"Ġadop":3301,"Ġcreate":3302,"Ġarrang":3303,"Ġexperience":3304,"ĠGalvest":3305,"ĠGalveston":3306,"den":3307,"uing":3308,"eding":3309,"ĠMet":3310,"ĠWood":3311,"ĠOtt":3312,"Ġleaving":3313,"Ġcritical":3314,"Ġthus":3315,"ĠChic":3316,"Ġprimary":3317,"Ġfavor":3318,"ires":3319,"lor":3320,"Ġschol":3321,"Ġlived":3322,"urity":3323,"owler":3324,"Ġalways":3325,"ĠAnother":3326,"Ġconsist":3327,"Ġlocation":3328,"ylv":3329,"minist":3330,"Ġgods":3331,"Ġagreed":3332,"Ġlyrics":3333,"iest":3334,"reak":3335,"Ġbrief":3336,"Ġpay":3337,"Ġlab":3338,"imate":3339,"ĠFin":3340,"ĠGo":3341,"aven":3342,"Ġrare":3343,"teen":3344,"Ġcompl":3345,"Ġfilms":3346,"Ġruns":3347,"Ġofficers":3348,"Ġcontroll":3349,"Ġlaunched":3350,"ĠCalifornia":3351,"ping":3352,"pool":3353,"tar":3354,"Ġcoin":3355,"ĠServ":3356,"ĠCamp":3357,"ĠBey":3358,"Ġcolon":3359,"Ġsett":3360,"Ġteams":3361,"Ġculture":3362,"Ġfriends":3363,"osaurus":3364,"Ġquickly":3365,"ĠCatholic":3366,"ĠHol":3367,"change":3368,"Ġmeant":3369,"Ġepisodes":3370,"ĠBrad":3371,"Ġminute":3372,"hester":3373,"Ġproposed":3374,"Ġoccurred":3375,"oor":3376,"pan":3377,"ror":3378,"ĠAle":3379,"urg":3380,"ĠIf":3381,"arts":3382,"ĠUp":3383,"Ġwhether":3384,"oke":3385,"key":3386,"Ġprem":3387,"Ġattr":3388,"Ġassigned":3389,"Ġaccess":3390,"Ġsettle":3391,"Ġincrease":3392,"Ġequip":3393,"kan":3394,"zy":3395,"Ġsat":3396,"atively":3397,"Ġfans":3398,"Ġpian":3399,"ĠSaint":3400,"Ġvot":3401,"illery":3402,"Ġtraff":3403,"Ġadap":3404,"Ġforms":3405,"ification":3406,"Ġappears":3407,"Ġdefeat":3408,"Ġchanged":3409,"Ġdestroyed":3410,"Ġtraffic":3411,"Ġtons":3412,"ĠMr":3413,"imum":3414,"ĠNic":3415,"ĠNix":3416,"ability":3417,"Ġ400":3418,"Ġscript":3419,"Ġcommission":3420,"Ġearth":3421,"Ġlonger":3422,"ospital":3423,"ĠCentral":3424,"Ġmeaning":3425,"ĠChicago":3426,"rup":3427,"asy":3428,"ĠRoss":3429,"Ġjob":3430,"Ġ70":3431,"Ġtheme":3432,"Ġnumbers":3433,"Ġ1940":3434,"Ġconcern":3435,"ĠBattle":3436,"Ġsoldiers":3437,"Ġcompetition":3438,"sis":3439,"Ġmom":3440,"Ġreach":3441,"aded":3442,"ĠHaw":3443,"andon":3444,"Ġleave":3445,"Ġtrade":3446,"ruit":3447,"Ġbound":3448,"ĠAlice":3449,"vey":3450,"Ġcarried":3451,"onym":3452,"Ġawarded":3453,"Ġfocus":3454,"ĠNorthern":3455,"Ġcelebr":3456,"Ġhop":3457,"Ġgirl":3458,"ĠLatin":3459,"undred":3460,"Ġ33":3461,"Ġ1998":3462,"ĠEnter":3463,"ĠQu":3464,"Ġconducted":3465,"Ġprivate":3466,"Ġdaughter":3467,"Ġsil":3468,"Ġcred":3469,"Ġnatural":3470,"ĠLou":3471,"Ġdeep":3472,"ĠOver":3473,"bery":3474,"Ġrecords":3475,"Ġunderst":3476,"Ġsubsequently":3477,"Ġnewsp":3478,"Ġcause":3479,"Ġtourn":3480,"ĠMey":3481,"Ġanaly":3482,"Ġran":3483,"ortun":3484,"Ġplans":3485,"Ġ300":3486,"Ġunc":3487,"ĠVilla":3488,"ĠScot":3489,"Ġconsider":3490,"Ġ1930":3491,"Ġfighting":3492,"oir":3493,"Ġtakes":3494,"itect":3495,"Ġbord":3496,"ari":3497,"Ġded":3498,"ĠMer":3499,"iva":3500,"ĠDj":3501,"Ġshoot":3502,"ĠAlkan":3503,"Ġoverall":3504,"Ġ1993":3505,"Ġinfluence":3506,"ĠPolish":3507,"ĠSecond":3508,"Ġcommented":3509,"Ġindustry":3510,"Ġ+":3511,"Ġcle":3512,"Ġbomb":3513,"ĠMa":3514,"usband":3515,"ĠPat":3516,"ĠFore":3517,"ĠLiver":3518,"ruct":3519,"ĠItal":3520,"Ġserious":3521,"Ġfinally":3522,"Ġelection":3523,"Ġbring":3524,"Ġconcert":3525,"Ġasked":3526,"ĠNixon":3527,"ĠLiverpool":3528,"tained":3529,"ĠTay":3530,"Ġemer":3531,"ĠForm":3532,"Ġdeg":3533,"Ġkil":3534,"Ġ32":3535,"Ġcompared":3536,"Ġwhole":3537,"Ġimm":3538,"Ġmethod":3539,"Ġending":3540,"Ġgreater":3541,"hou":3542,"oly":3543,"sen":3544,"Ġdone":3545,"ĠBC":3546,"ĠGro":3547,"Ġunable":3548,"ĠIts":3549,"ĠSever":3550,"ĠTexas":3551,"ĠChristm":3552,"Ġmarried":3553,"Ġpositions":3554,"Ġdouble":3555,"stitute":3556,"well":3557,"inent":3558,"Ġour":3559,"Ġinn":3560,"anced":3561,"ĠTre":3562,"ĠTour":3563,"aches":3564,"ĠLady":3565,"erset":3566,"Ġupper":3567,"Ġcann":3568,"Ġbuildings":3569,"ĠSomerset":3570,"gian":3571,"Ġtar":3572,"Ġsus":3573,"Ġche":3574,"Ġdram":3575,"ĠTropical":3576,"Ġthick":3577,"ĠMart":3578,"Ġgot":3579,"umn":3580,"ills":3581,"Ġyet":3582,"Ġcentre":3583,"Ġearned":3584,"Ġflight":3585,"anks":3586,"ĠMosley":3587,"unt":3588,"Ġcounter":3589,"Ġbig":3590,"Ġliving":3591,"ĠCour":3592,"ĠMil":3593,"ĠThree":3594,"Ġparty":3595,"Ġenv":3596,"aily":3597,"Ġ1996":3598,"Ġ90":3599,"Ġacqu":3600,"Ġpersonal":3601,"Ġstandard":3602,"Ġissued":3603,"Ġnucle":3604,"Ġbegins":3605,"ĠBusch":3606,"Ġrapid":3607,"gen":3608,"Ġpurch":3609,"ĠTenn":3610,"Ġthrow":3611,"Ġlog":3612,"ĠMount":3613,"Ġkind":3614,"ĠStr":3615,"Ġbox":3616,"Ġterms":3617,"Ġdirectly":3618,"Ġmarked":3619,"Ġmarket":3620,"ittee":3621,"dle":3622,"Ġult":3623,"ĠSk":3624,"amer":3625,"ĠBel":3626,"ulted":3627,"ĠLake":3628,"Ġhero":3629,"Ġhealth":3630,"Ġscenes":3631,"ails":3632,"Ġmovement":3633,"Ġbooks":3634,"Ġmarriage":3635,"ĠSpanish":3636,"Ġstatus":3637,"ĠTaylor":3638,"ĠChristmas":3639,"Ġdom":3640,"ĠBack":3641,"ĠFowler":3642,"Ġconcept":3643,"Ġhelped":3644,"Ġportray":3645,"Ġslight":3646,"ĠSeveral":3647,"Ġund":3648,"Ġtell":3649,"Ġbatter":3650,"ĠJo":3651,"umed":3652,"istics":3653,"Ġplanned":3654,"Ġsched":3655,"Ġstarting":3656,"Ġattacks":3657,"Ġschools":3658,"Ġexperi":3659,"ĠAfrican":3660,"Ġsuffered":3661,"Ġtraditional":3662,"Ġinformation":3663,"Ġopt":3664,"itor":3665,"iser":3666,"Ġdig":3667,"Ġdark":3668,"Ġgiving":3669,"ĠPit":3670,"alled":3671,"ĠStorm":3672,"Ġjud":3673,"Ġspeed":3674,"Ġperformances":3675,"Ġfigure":3676,"Ġassociated":3677,"Ġinspired":3678,"ĠInfantry":3679,"AS":3680,"ma":3681,"Ġx":3682,"itude":3683,"Ġdivision":3684,"Ġhusband":3685,"ĠTw":3686,"ĠSam":3687,"ĠJane":3688,"Ġclosed":3689,"Ġabandon":3690,"athan":3691,"ĠArch":3692,"Ġleaders":3693,"embly":3694,"Ġpresented":3695,"Ġcondoms":3696,"Ġsource":3697,"ĠParty":3698,"Ġmachine":3699,"ĠSoviet":3700,"awn":3701,"Ġmur":3702,"ĠFoot":3703,"Ġvia":3704,"Ġpresence":3705,"Ġgreatest":3706,"Ġinitial":3707,"ĠSeries":3708,"Ġraised":3709,"Ġdetermin":3710,"II":3711,"iant":3712,"mium":3713,"Ġwound":3714,"ĠCross":3715,"ĠBob":3716,"Ġexcept":3717,"Ġunit":3718,"Ġroom":3719,"ĠVict":3720,"Ġuses":3721,"Ġwriters":3722,"Ġcontinue":3723,"Ġnearby":3724,"aught":3725,"ĠParis":3726,"ĠCarolina":3727,"Ġeducation":3728,"Ġdocument":3729,"ĠRosebery":3730,"ĠVirginia":3731,"Ã³n":3732,"ylvania":3733,"ks":3734,"itation":3735,"Ġnorm":3736,"ĠBoy":3737,"ĠLive":3738,"Ġplot":3739,"raf":3740,"Ġuns":3741,"Ġdism":3742,"Ġimage":3743,"iami":3744,"Ġcollection":3745,"Ġcovered":3746,"Ġcyclone":3747,"ĠPenns":3748,"cing":3749,"oration":3750,"Ġhundred":3751,"Ġrein":3752,"olk":3753,"ĠBen":3754,"ĠJam":3755,"ĠJust":3756,"Ġchall":3757,"Ġcomposed":3758,"Ġweap":3759,"ĠAnt":3760,"Ġcomplex":3761,"Ġannual":3762,"Ġservices":3763,"incip":3764,"ĠQueen":3765,"ĠCollege":3766,"erve":3767,"atre":3768,"Ġbodies":3769,"Ġreally":3770,"ĠCer":3771,"ĠRob":3772,"eway":3773,"Ġextended":3774,"Ġ1997":3775,"Ġnumerous":3776,"Ġpolic":3777,"Ġcommander":3778,"Ġcathedral":3779,"Ġproducer":3780,"Ġfigures":3781,"Ġterritory":3782,"oncÃ©":3783,"ĠBeyoncÃ©":3784,"bar":3785,"joy":3786,"ken":3787,"Ġtor":3788,"Ġfell":3789,"Ġpark":3790,"Ġpath":3791,"icted":3792,"Ġthings":3793,"ĠSix":3794,"ĠMiami":3795,"etic":3796,"aging":3797,"Ġdepend":3798,"ĠOpen":3799,"essa":3800,"Ġenjoy":3801,"ĠGermany":3802,"ĠMuseum":3803,"Ġproteins":3804,"Ġvocals":3805,"rical":3806,"erbe":3807,"anded":3808,"ĠNations":3809,"Ġsev":3810,"ift":3811,"Ġ39":3812,"ously":3813,"Ġprep":3814,"Ġsomething":3815,"Ġoperation":3816,"ĠClub":3817,"Ġwaters":3818,"anz":3819,"anas":3820,"ĠTheir":3821,"estival":3822,"Ġcompanies":3823,"ĠThrough":3824,"Ġhighly":3825,"Ġattacked":3826,"Ġattempts":3827,"Ġrequest":3828,"Ġmorning":3829,"Ġstrength":3830,"Ġinvestig":3831,"ĠService":3832,"ny":3833,"Ġtalk":3834,"Ġreject":3835,"admium":3836,"ĠIll":3837,"Ġaspect":3838,"ander":3839,"ĠInn":3840,"Ġdise":3841,"Ġfinanc":3842,"Ġtransl":3843,"Ġmetal":3844,"Ġconfir":3845,"ĠPrince":3846,"Ġera":3847,"Ġindividual":3848,"Ġimmediately":3849,"ĠPennsylvania":3850,"lim":3851,"Ġpil":3852,"ĠSur":3853,"ĠSquadron":3854,"ademy":3855,"uries":3856,"Ġstone":3857,"ĠGames":3858,"ĠInter":3859,"apo":3860,"Ġnecess":3861,"Ġinterse":3862,"Ġincor":3863,"Ġartist":3864,"Ġdistance":3865,"Ġallowing":3866,"Ġpowerful":3867,"Ġsituation":3868,"Ġnuclear":3869,"Ġremoved":3870,"Ġpiano":3871,"NA":3872,"mon":3873,"ply":3874,"vement":3875,"Ġhabit":3876,"olf":3877,"ĠHum":3878,"ĠWater":3879,"Ġselected":3880,"ipp":3881,"Ġrecover":3882,"lands":3883,"Ġoffered":3884,"ibly":3885,"Ġstudies":3886,"Ġartillery":3887,"Ġinside":3888,"Ġadvance":3889,"Ġvariety":3890,"ĠJackson":3891,"Ġneeded":3892,"Ġpeaked":3893,"ĠScotland":3894,"TV":3895,"Ġhot":3896,"Ġnative":3897,"chan":3898,"Ġattend":3899,"ĠJose":3900,"Ġrate":3901,"ĠUnder":3902,"Ġ42":3903,"Ġ182":3904,"Ġmeans":3905,"Ġ1991":3906,"ĠChris":3907,"Ġcountries":3908,"Ġheadquarters":3909,"Ġattempted":3910,"ĠSomal":3911,"Ġcopies":3912,"pole":3913,"Ġsaf":3914,"rol":3915,"ĠAI":3916,"adium":3917,"imony":3918,"ether":3919,"ĠLos":3920,"Ġsearch":3921,"ria":3922,"anta":3923,"Ġkick":3924,"ĠChina":3925,"Ġscoring":3926,"ribution":3927,"Ġprincip":3928,"Ġcoach":3929,"Ġtracks":3930,"Ġhands":3931,"Ġarchitect":3932,"Ġcasual":3933,"Ġrespectively":3934,"Ġresponsible":3935,"Ġpurp":3936,"track":3937,"een":3938,"Ġpurs":3939,"Ġmole":3940,"ĠMajor":3941,"Ġrule":3942,"ĠOut":3943,"Ġ47":3944,"Ġsymb":3945,"Ġdescribes":3946,"Ġimpact":3947,"Ġadvant":3948,"Ġappearances":3949,"ĠAnderson":3950,"ĠBoth":3951,"Ġgenus":3952,"Ġhigher":3953,"Ġwidely":3954,"ĠDepartment":3955,"Ġtouchdown":3956,"cer":3957,"ha":3958,"ĠCrit":3959,"cend":3960,"ĠDan":3961,"andid":3962,"ĠNor":3963,"Ġtext":3964,"anger":3965,"Ġspir":3966,"orship":3967,"Ġ1992":3968,"Ġsets":3969,"Ġcontrovers":3970,"Ġcourse":3971,"Ġobserved":3972,"ĠCorps":3973,"Ġsexual":3974,"ĠBraat":3975,"Ġheavily":3976,"ĠFootball":3977,"of":3978,"rey":3979,"reme":3980,"Ġpick":3981,"oud":3982,"ĠAre":3983,"Ġadult":3984,"Ġ44":3985,"ports":3986,"Ġ1994":3987,"Ġrelief":3988,"Ġamb":3989,"Ġbelow":3990,"Ġphot":3991,"Ġmiddle":3992,"Ġmeeting":3993,"Ġreduced":3994,"ĠAlex":3995,"Ġxenon":3996,"iny":3997,"Ġintern":3998,"icient":3999,"Ġang":4000,"ĠLi":4001,"ĠLike":4002,"Ġplat":4003,"Ġadminist":4004,"Ġresulted":4005,"Ġboy":4006,"Ġsecret":4007,"Ġactive":4008,"Ġsinger":4009,"Ġmatches":4010,"Ġsixth":4011,"ĠMinnes":4012,"ricket":4013,"Ġaudience":4014,"Ġconcluded":4015,"ĠMinnesota":4016,"aen":4017,"car":4018,"ga":4019,"lict":4020,"ship":4021,"Ġsal":4022,"ĠTem":4023,"ĠTime":4024,"ils":4025,"akapo":4026,"Ġtrue":4027,"Ġlands":4028,"ĠFranc":4029,"inkel":4030,"Ġactivity":4031,"Ġactivities":4032,"Ġcompletely":4033,"ĠVictor":4034,"Ġess":4035,"isher":4036,"ĠSouthern":4037,"cts":4038,"Ġstating":4039,"ĠDel":4040,"send":4041,"Ġmanaged":4042,"Ġopportun":4043,"ĠCenter":4044,"ĠTownsend":4045,"Ġrevealed":4046,"Ġcontemporary":4047,"like":4048,"atives":4049,"Ġfill":4050,"Ġhour":4051,"ems":4052,"ocr":4053,"ĠSea":4054,"Ġquality":4055,"Ġgraph":4056,"ĠColon":4057,"Ġrefused":4058,"Ġlevels":4059,"Ġdeclared":4060,"Ġtrees":4061,"Ġseparate":4062,"ĠItalian":4063,"cause":4064,"iated":4065,"Ġbad":4066,"ication":4067,"ĠSir":4068,"ĠMidd":4069,"ĠFinkel":4070,"ĠLong":4071,"ologist":4072,"Ġblue":4073,"annel":4074,"Ġconstit":4075,"ĠBecause":4076,"rowd":4077,"ĠForce":4078,"Ġdrum":4079,"ĠWalpole":4080,"Ġquestion":4081,"ĠHawai":4082,"ĠMeyerbe":4083,"ĠFinkelstein":4084,"ĠMeyerbeer":4085,"MS":4086,"iqu":4087,"ining":4088,"Ġtoday":4089,"lement":4090,"ĠTessa":4091,"ĠSol":4092,"ify":4093,"aped":4094,"Ġuniversity":4095,"peror":4096,"Ġrecent":4097,"Ġshell":4098,"athus":4099,"Ġblood":4100,"Ġbackground":4101,"ĠShiva":4102,"Ġfeaturing":4103,"Ġinstit":4104,"Ġcarry":4105,"Ġmodel":4106,"Ġapproach":4107,"Ġcontrast":4108,"Ġhistorical":4109,"Ġtypically":4110,"Ġparents":4111,"ares":4112,"Ġiron":4113,"Ġactions":4114,"Ġpaper":4115,"ĠCast":4116,"Ġris":4117,"oph":4118,"Ġexpected":4119,"Ġ51":4120,"ĠYue":4121,"Ġ76":4122,"Ġdescript":4123,"Ġissues":4124,"Ġconditions":4125,"Ġmultip":4126,"ĠSmith":4127,"ĠSociety":4128,"ĠOttoman":4129,"ĠNicole":4130,"uff":4131,"Ġtax":4132,"hew":4133,"Ġwing":4134,"alty":4135,"ican":4136,"Ġreception":4137,"ĠMill":4138,"ĠBet":4139,"utch":4140,"ĠWild":4141,"ĠLit":4142,"Ġrhy":4143,"Ġcompos":4144,"rawn":4145,"Ġplays":4146,"Ġattention":4147,"Ġweaken":4148,"oint":4149,"Ġpeace":4150,"Ġentr":4151,"Ġmainly":4152,"Ġefforts":4153,"Ġbecomes":4154,"Ġhouses":4155,"force":4156,"cle":4157,"Ġwit":4158,"Ġpow":4159,"Ġnation":4160,"ĠBalt":4161,"ĠJim":4162,"ĠEmp":4163,"Ġ37":4164,"Ġresidents":4165,"Ġoffer":4166,"ounds":4167,"Ġwebs":4168,"Ġspecim":4169,"Ġsubs":4170,"Ġgrand":4171,"Ġemot":4172,"Ġbrown":4173,"ervation":4174,"Ġstrugg":4175,"shire":4176,"ĠHighway":4177,"Ġvehic":4178,"ĠBraathens":4179,"ging":4180,"rate":4181,"Ġsense":4182,"isl":4183,"Ġlot":4184,"Ġnarr":4185,"ado":4186,"ĠDam":4187,"Ġconsec":4188,"Ġactually":4189,"Ġcalling":4190,"Ġtitles":4191,"Ġmagn":4192,"Ġsoundtrack":4193,"ĠHait":4194,"ufact":4195,"bed":4196,"ware":4197,"Ġtask":4198,"het":4199,"eds":4200,"Ġhair":4201,"ĠDire":4202,"ĠNes":4203,"ellig":4204,"Ġroy":4205,"Ġroles":4206,"Ġseasons":4207,"Ġwrite":4208,"ĠJohnson":4209,"ĠBlue":4210,"ĠAdam":4211,"Ġstruck":4212,"Ġdemonst":4213,"Ġaccepted":4214,"Ġachieved":4215,"Ġcannot":4216,"ĠCourt":4217,"ĠIllino":4218,"uated":4219,"Ġathlet":4220,"Ġwear":4221,"Ġbene":4222,"icip":4223,"Ġlif":4224,"imin":4225,"ĠDem":4226,"ĠCharl":4227,"Ġrecomm":4228,"Ġresc":4229,"Ġinstr":4230,"Ġfamil":4231,"uese":4232,"Ġrespond":4233,"Ġprotein":4234,"Ġviewers":4235,"arent":4236,"Ġvocal":4237,"Ġpractice":4238,"ĠVietnam":4239,"ĠPortuguese":4240,"hood":4241,"onents":4242,"Ġcorn":4243,"Ġcrowd":4244,"Ġfiction":4245,"Ġthous":4246,"Ġbeat":4247,"ĠFey":4248,"aine":4249,"ĠJul":4250,"rial":4251,"appen":4252,"Ġ48":4253,"ĠThunder":4254,"Ġ181":4255,"Ġscient":4256,"Ġelev":4257,"Ġavoid":4258,"Ġprimarily":4259,"Ġsequence":4260,"ĠGovernment":4261,"ĠAcademy":4262,"Ġchem":4263,"itual":4264,"ĠTy":4265,"ĠTod":4266,"Ġlb":4267,"ĠCivil":4268,"ĠGar":4269,"ĠOf":4270,"ĠEr":4271,"essions":4272,"Ġ52":4273,"Ġboard":4274,"Ġspread":4275,"ĠRev":4276,"Ġelected":4277,"Ġ1986":4278,"venue":4279,"Ġinfantry":4280,"Ġowned":4281,"ĠColumb":4282,"Ġtwenty":4283,"Ġcombat":4284,"Ġtypes":4285,"Ġslightly":4286,"ding":4287,"hold":4288,"writ":4289,"Ġsales":4290,"Ġsister":4291,"anes":4292,"Ġmax":4293,"Ġnin":4294,"acher":4295,"ĠRam":4296,"Ġaltern":4297,"ulations":4298,"ĠLand":4299,"Ġplant":4300,"ĠKr":4301,"Ġscale":4302,"Ġoffensive":4303,"Ġsport":4304,"ĠNews":4305,"Ġinches":4306,"ĠEngine":4307,"Ġ150":4308,"Ġexpressed":4309,"Ġconcent":4310,"ĠSpain":4311,"Ġrights":4312,"Ġnortheast":4313,"Ġaffected":4314,"ĠCaptain":4315,"Ġwords":4316,"Ġhorse":4317,"ĠMog":4318,"ĠHorse":4319,"ulpt":4320,"estic":4321,"Ġ34":4322,"Ġrough":4323,"Ġ180":4324,"Ġsculpt":4325,"Ġneigh":4326,"ĠReview":4327,"Ġshowed":4328,"Ġofficer":4329,"aha":4330,"ograph":4331,"Äģd":4332,"ceeded":4333,"cription":4334,"ĠLouis":4335,"ĠGroup":4336,"bury":4337,"uit":4338,"vin":4339,"Ġsout":4340,"Ġspl":4341,"Ġwalk":4342,"Ġpup":4343,"road":4344,"ĠTint":4345,"ĠMal":4346,"ushed":4347,"ĠWels":4348,"ĠGreen":4349,"Ġsuc":4350,"Ġability":4351,"ĠYoung":4352,"Ġthemes":4353,"ledge":4354,"ĠZhou":4355,"Ġcounty":4356,"Ġbattalion":4357,"Ġwindow":4358,"Ġcombined":4359,"ĠSecret":4360,"ĠVaranas":4361,"ĠLittle":4362,"ĠEmpire":4363,"ĠTintin":4364,"ĠWelsh":4365,"ĠVaranasi":4366,"FA":4367,"house":4368,"light":4369,"nh":4370,"Ġfruit":4371,"arrow":4372,"Ġpun":4373,"ingu":4374,"Ġrear":4375,"Ġsust":4376,"ĠThough":4377,"Ġprec":4378,"Ġtitled":4379,"Ġprogress":4380,"ĠAndrew":4381,"Ġcultural":4382,"bitt":4383,"onymous":4384,"Ġincorpor":4385,"Ġcasualties":4386,"ĠNesbitt":4387,"BA":4388,"mun":4389,"Ġsquare":4390,"Ġmountain":4391,"ĠManc":4392,"ĠBurn":4393,"ĠDist":4394,"emic":4395,"umber":4396,"Ġremark":4397,"Ġproduce":4398,"Ġcontinues":4399,"Ġsays":4400,"Ġearliest":4401,"ĠEva":4402,"ironment":4403,"Ġexcav":4404,"ĠOdaen":4405,"ĠAngeles":4406,"Ġmentioned":4407,"Ġancient":4408,"Ġnewspaper":4409,"Ġmurder":4410,"ĠCeres":4411,"Ġrecommend":4412,"ĠOdaenathus":4413,"Mont":4414,"eter":4415,"Ġfully":4416,"Ġinh":4417,"Ġdyn":4418,"Ġhol":4419,"ĠTurn":4420,"ĠSarn":4421,"ĠSpec":4422,"omer":4423,"ĠBook":4424,"ĠHome":4425,"etts":4426,"oses":4427,"Ġchampionship":4428,"Ġmanufact":4429,"Ġactor":4430,"Ġartists":4431,"Ġdistinct":4432,"ĠConf":4433,"ĠCommun":4434,"pedo":4435,"ĠTrans":4436,"Ġresulting":4437,"Ġ1920":4438,"Ġauthorities":4439,"Ġinfluenced":4440,"ĠRecords":4441,"Ġflooding":4442,"ĠDuMont":4443,"ĠOlympic":4444,"Ġcerem":4445,"Ġadopted":4446,"Ġdisease":4447,"ĠSarnia":4448,"ev":4449,"gal":4450,"enant":4451,"Ġmission":4452,"utions":4453,"ĠRad":4454,"Ġreports":4455,"ĠAdd":4456,"ĠOrigin":4457,"Ġbasis":4458,"ĠPerÃ³n":4459,"Ġrepresented":4460,"while":4461,"Ġadvantage":4462,"ĠIllinois":4463,"bird":4464,"nown":4465,"Ġtoward":4466,"Ġhar":4467,"Ġrepe":4468,"ĠBol":4469,"Ġalone":4470,"ĠJos":4471,"ĠOm":4472,"Ġcoming":4473,"ovic":4474,"ĠArg":4475,"Ġassault":4476,"Ġapparent":4477,"Ġdefense":4478,"Ġqual":4479,"Ġgrass":4480,"ĠCont":4481,"helm":4482,"Ġletters":4483,"Ġtower":4484,"ĠApple":4485,"Ġtournament":4486,"ĠThunderbird":4487,"ĠMogad":4488,"ĠManchester":4489,"Ġsides":4490,"nds":4491,"orus":4492,"Ġreign":4493,"Ġreact":4494,"ĠSR":4495,"ĠSal":4496,"imb":4497,"ĠFred":4498,"ĠWash":4499,"Ġexhib":4500,"Ġkakapo":4501,"Ġarmed":4502,"Ġworkers":4503,"Ġrelatively":4504,"ĠDef":4505,"ocks":4506,"Ġfounded":4507,"Ġbridge":4508,"Ġalongside":4509,"Ġoccasion":4510,"Ġnorthwest":4511,"Ġencour":4512,"Ġwithdraw":4513,"Ġtorpedo":4514,"ĠWashington":4515,"lin":4516,"mir":4517,"Ġcadmium":4518,"Ġfa":4519,"room":4520,"Ġlosing":4521,"Ġnest":4522,"Ġnarrow":4523,"ĠPost":4524,"ĠFour":4525,"ĠDou":4526,"Ġattended":4527,"ĠOcean":4528,"Ġyellow":4529,"Ġcontain":4530,"Ġmechan":4531,"Ġ1988":4532,"Ġdirection":4533,"Ġtermin":4534,"Ġofficially":4535,"Ġedition":4536,"Ġtried":4537,"Ġorganized":4538,"Ġcapture":4539,"Ġlegal":4540,"Ġindividuals":4541,"Ġillust":4542,"Ġtransferred":4543,"Ġmess":4544,"Ġmile":4545,"ĠAv":4546,"ĠWay":4547,"osen":4548,"Ġproved":4549,"abama":4550,"eller":4551,"ogue":4552,"Ġperman":4553,"ĠAlabama":4554,"ension":4555,"Ġacting":4556,"Ġeffort":4557,"ĠClark":4558,"ĠProdu":4559,"Ġrequire":4560,"Ġofficials":4561,"Ġmeasure":4562,"Ġphysical":4563,"Ġsurrounding":4564,"Ġdedicated":4565,"ĠMiddle":4566,"ĠOmaha":4567,"AA":4568,"mes":4569,"Ġcandid":4570,"Ġdu":4571,"Ġthir":4572,"Ġlives":4573,"Ġeye":4574,"ĠMD":4575,"Ġstarl":4576,"usion":4577,"Ġrang":4578,"ricult":4579,"Ġenergy":4580,"Ġprin":4581,"Ġdoing":4582,"prise":4583,"Ġemph":4584,"Ġedge":4585,"Ġextr":4586,"Ġconflict":4587,"Ġcouple":4588,"Ġrainfall":4589,"ien":4590,"right":4591,"wen":4592,"ading":4593,"adel":4594,"imore":4595,"ishu":4596,"Ġprepar":4597,"ĠReception":4598,"Ġfollows":4599,"Ġdesignated":4600,"ĠMean":4601,"Ġshortly":4602,"Ġpossibly":4603,"Ġpattern":4604,"Ġdivided":4605,"Ġintensity":4606,"ĠHelms":4607,"Ġfinancial":4608,"ĠMogadishu":4609,"mond":4610,"Ġir":4611,"Ġfaced":4612,"Ġpaid":4613,"Ġhun":4614,"ĠSch":4615,"ols":4616,"ĠHal":4617,"ĠFam":4618,"ĠFant":4619,"ĠLord":4620,"Ġvo":4621,"Ġven":4622,"Ġshape":4623,"Ġyour":4624,"Ġyoun":4625,"Ġ49":4626,"Ġimages":4627,"Ġ65":4628,"Ġalbums":4629,"Ġ1964":4630,"Ġsimply":4631,"Ġwinter":4632,"Ġolder":4633,"ĠEdward":4634,"Ġsociety":4635,"Ġsources":4636,"ĠWilhelm":4637,"Ġdetermined":4638,"ĠInnis":4639,"Ġmaximum":4640,"lied":4641,"mit":4642,"rane":4643,"Ġaid":4644,"Ġple":4645,"ĠCons":4646,"Ġonto":4647,"ĠMax":4648,"ĠBre":4649,"Ġstep":4650,"ĠNC":4651,"Ġrat":4652,"Ġraid":4653,"Ġcomedy":4654,"Ġchief":4655,"Ġplaces":4656,"ĠKent":4657,"orses":4658,"ugby":4659,"ĠIndepend":4660,"Ġbroken":4661,"Ġportion":4662,"Ġbehav":4663,"ĠAssembly":4664,"Ġkept":4665,"Ġfunction":4666,"ĠHistor":4667,"Ġpiece":4668,"Ġdissip":4669,"Ġpotential":4670,"Ġjournal":4671,"uzz":4672,"Ġborder":4673,"ĠJoseph":4674,"Ġemphas":4675,"onna":4676,"Ġsac":4677,"Ġcities":4678,"ental":4679,"igan":4680,"use":4681,"ĠFleet":4682,"ĠJup":4683,"ĠJourn":4684,"Ġunivers":4685,"Ġadvert":4686,"Ġcharge":4687,"Ġmovie":4688,"ĠCommission":4689,"Ġprotect":4690,"Ġargued":4691,"ĠMcCall":4692,"Station":4693,"rid":4694,"Ġwild":4695,"Ġfeder":4696,"Ġfolk":4697,"Ġmind":4698,"Ġthr":4699,"ada":4700,"Ġgrew":4701,"ĠRih":4702,"ĠFer":4703,"Ġheart":4704,"oper":4705,"Ġcontent":4706,"ĠVan":4707,"Ġcolor":4708,"Ġdepth":4709,"Ġsuggests":4710,"Ġauthority":4711,"Ġsites":4712,"Ġprojects":4713,"Ġmanagement":4714,"ĠHamels":4715,"ĠPlayStation":4716,"Ġdomestic":4717,"ĠBaltimore":4718,"ĠArgent":4719,"ĠRihanna":4720,"Ġwor":4721,"Ġwave":4722,"edar":4723,"atops":4724,"Ġpaint":4725,"rown":4726,"Ġdut":4727,"lection":4728,"iled":4729,"acement":4730,"Ġgained":4731,"ĠBowl":4732,"ĠRh":4733,"ĠDest":4734,"ĠGreek":4735,"Ġroll":4736,"Ġscience":4737,"Ġweak":4738,"Ġ64":4739,"Ġprison":4740,"Ġmuseum":4741,"Ġbelong":4742,"Ġdepart":4743,"ĠCommon":4744,"Ġlegisl":4745,"Ġcausing":4746,"Ġtwice":4747,"Ġcriticized":4748,"Ġstructures":4749,"Ġletter":4750,"ĠValley":4751,"Ġtarget":4752,"Ġultimately":4753,"Ġschedul":4754,"Ġentrance":4755,"Ġwebsite":4756,"Ġroyal":4757,"ex":4758,"je":4759,"kare":4760,"lies":4761,"Ġunk":4762,"edkare":4763,"Ġfit":4764,"Ġfung":4765,"ening":4766,"ani":4767,"ĠTru":4768,"ented":4769,"enture":4770,"ĠCra":4771,"Ġvess":4772,"Ġshare":4773,"Ġcontaining":4774,"Ġneut":4775,"Ġformation":4776,"Ġextra":4777,"Ġresults":4778,"ĠWeek":4779,"Ġdebuted":4780,"ĠPalest":4781,"Ġdoub":4782,"Ġhomes":4783,"ĠDjedkare":4784,"ĠJupiter":4785,"mission":4786,"wide":4787,"Ġhospital":4788,"ĠMass":4789,"ĠWrit":4790,"ĠGall":4791,"Ġdeploy":4792,"Ġchosen":4793,"Ġkg":4794,"asty":4795,"claim":4796,"ĠVen":4797,"Ġagg":4798,"Ġdefence":4799,"Ġdefensive":4800,"Ġ1947":4801,"Ġartic":4802,"ĠConstant":4803,"Ġbattles":4804,"Ġforeign":4805,"ĠTorres":4806,"Ġopin":4807,"Ġlabel":4808,"VD":4809,"bour":4810,"Ġcore":4811,"Ġinch":4812,"Ġmouth":4813,"Ġmaster":4814,"ĠSen":4815,"ĠSar":4816,"ĠHib":4817,"ĠHorn":4818,"ĠDVD":4819,"ĠNight":4820,"ĠLis":4821,"ĠLew":4822,"umes":4823,"ĠEastern":4824,"resh":4825,"acks":4826,"ĠKore":4827,"Ġsecurity":4828,"Ġbrigade":4829,"Ġprominent":4830,"Ġstanding":4831,"Ġreference":4832,"Ġfrag":4833,"Ġgrowing":4834,"Ġanimal":4835,"Ġburied":4836,"Ġgranted":4837,"Ġabandoned":4838,"Ġdismiss":4839,"Ġrejected":4840,"Ġconsecutive":4841,"inary":4842,"ĠSil":4843,"ĠFA":4844,"ĠOnce":4845,"ĠAnn":4846,"Ġcolony":4847,"Ġtherefore":4848,"Ġ1941":4849,"Ġvisited":4850,"Ġorganization":4851,"Ġclaims":4852,"Ġtemple":4853,"Ġorders":4854,"Ġcells":4855,"white":4856,"ĠScottish":4857,"ĠForest":4858,"Ġrisk":4859,"ĠApplewhite":4860,"met":4861,"Ġrom":4862,"nding":4863,"Ġmel":4864,"roll":4865,"stone":4866,"ĠLo":4867,"Ġseek":4868,"iana":4869,"ĠChap":4870,"Ġjump":4871,"Ġspot":4872,"Ġremix":4873,"Ġregions":4874,"Ġseconds":4875,"phia":4876,"Ġsingles":4877,"Ġ1987":4878,"ĠShort":4879,"Ġstudent":4880,"Ġminer":4881,"Ġbroke":4882,"ĠAirport":4883,"Ġcondition":4884,"Ġindependent":4885,"Ġwounded":4886,"adelphia":4887,"ML":4888,"mark":4889,"Ġahead":4890,"Ġfix":4891,"isters":4892,"ĠTri":4893,"Ġreaching":4894,"ĠAp":4895,"ĠCam":4896,"ĠBig":4897,"ĠPop":4898,"ĠInstitute":4899,"ĠChild":4900,"Ġintellig":4901,"Ġadj":4902,"Ġenemy":4903,"ĠAtt":4904,"Ġenter":4905,"ertain":4906,"ancy":4907,"Ġversions":4908,"Ġcollect":4909,"Ġplanet":4910,"Ġsolo":4911,"Ġcases":4912,"Ġidentified":4913,"Ġcollabor":4914,"Ġnominated":4915,"Ġseems":4916,"ĠEgyptian":4917,"Ġtemperature":4918,"Ġequipment":4919,"Ġmoment":4920,"ĠBackground":4921,"ech":4922,"Ġaired":4923,"Ġbott":4924,"Ġmales":4925,"ĠSAF":4926,"ĠBBC":4927,"ims":4928,"ĠFurther":4929,"ĠDue":4930,"Ġconver":4931,"Ġheight":4932,"ĠUs":4933,"Ġunique":4934,"Ġ53":4935,"Ġnewly":4936,"Ġelement":4937,"Ġ120":4938,"Ġ1984":4939,"Ġ1989":4940,"Ġ1972":4941,"Ġreturning":4942,"Ġsupporting":4943,"ĠBefore":4944,"Ġcampus":4945,"Ġopposed":4946,"Ġknowledge":4947,"Ġproblem":4948,"ĠCroatia":4949,"ĠSAFE":4950,"uous":4951,"Ġtur":4952,"rete":4953,"Ġwa":4954,"Ġfle":4955,"Ġfear":4956,"Ġfired":4957,"Ġdress":4958,"iles":4959,"ĠMike":4960,"ĠBir":4961,"ety":4962,"ĠGood":4963,"ĠLock":4964,"ĠEach":4965,"ocated":4966,"astic":4967,"Ġteacher":4968,"Ġweight":4969,"Ġinterp":4970,"Ġ1985":4971,"ĠIndust":4972,"Ġoperated":4973,"Ġlooking":4974,"Ġincreasingly":4975,"Ġliterature":4976,"Ġconnect":4977,"ĠOperation":4978,"Ġanalysis":4979,"Ġunknown":4980,"bon":4981,"iate":4982,"Ġtun":4983,"Ġtheory":4984,"Ġcouncil":4985,"asters":4986,"igg":4987,"ĠHMS":4988,"ĠPo":4989,"ĠField":4990,"ĠLar":4991,"Ġhere":4992,"Ġshr":4993,"Ġcompr":4994,"Ġwrites":4995,"Ġdefin":4996,"Ġbelieve":4997,"Ġexplained":4998,"Ġbreeding":4999,"Ġcommonly":5000,"ĠBarrow":5001,"Ġhistorian":5002,"Ġideas":5003,"Ġburns":5004,"ĠCardiff":5005,"Ġsettlement":5006,"Ġenvironment":5007,"Ġconfirmed":5008,"mosp":5009,"Ġox":5010,"Ġoil":5011,"atch":5012,"orter":5013,"Ġcricket":5014,"Ġbud":5015,"ĠSum":5016,"ĠMore":5017,"Ġstations":5018,"ĠPublic":5019,"ĠRA":5020,"Ġalter":5021,"Ġatmosp":5022,"ĠOx":5023,"ortal":5024,"Ġarrest":5025,"Ġherself":5026,"Ġperfect":5027,"Ġ55":5028,"ibr":5029,"ĠOnly":5030,"Ġconsisted":5031,"hips":5032,"Ġsinging":5033,"Ġ1944":5034,"Ġadvanced":5035,"Ġsystems":5036,"Ġphil":5037,"Ġfemales":5038,"ĠMichigan":5039,"ĠPhiladelphia":5040,"Ġproperty":5041,"Ġeconomic":5042,"Ġscholars":5043,"Ġcontrolled":5044,"ĠEntertain":5045,"Ġmolec":5046,"yes":5047,"Ġfast":5048,"Ġfox":5049,"alions":5050,"Ġparliament":5051,"Ġmount":5052,"Ġhappen":5053,"ĠMounted":5054,"ĠNorm":5055,"ĠNever":5056,"ĠJon":5057,"Ġdeities":5058,"odon":5059,"ĠEven":5060,"Ġmaintained":5061,"Ġgrowth":5062,"ĠKeats":5063,"appy":5064,"ĠSwed":5065,"Ġdevot":5066,"Ġstrengt":5067,"Ġpieces":5068,"Ġfailure":5069,"Ġdropped":5070,"Ġkilomet":5071,"ĠMeanwhile":5072,"tav":5073,"Ġawards":5074,"Ġsens":5075,"isation":5076,"Ġpan":5077,"ĠBon":5078,"ĠDutch":5079,"istry":5080,"Ġcompar":5081,"ĠAlbum":5082,"ĠArm":5083,"Ġfilmed":5084,"Ġcreation":5085,"Ġlandfall":5086,"ĠCarl":5087,"ĠClass":5088,"Ġkilling":5089,"Ġfreeway":5090,"ĠWilliams":5091,"Ġpitched":5092,"ĠMorr":5093,"Ġstrike":5094,"Ġhonor":5095,"Ġflying":5096,"Ġinjury":5097,"ĠAddition":5098,"aling":5099,"Ġmounted":5100,"Ġhorses":5101,"ĠBan":5102,"Ġconne":5103,"ĠNathan":5104,"agan":5105,"ĠJur":5106,"ighth":5107,"Ġextend":5108,"Ġtry":5109,"ieval":5110,"Ġ43":5111,"Ġresemb":5112,"Ġboats":5113,"ĠItaly":5114,"Ġserve":5115,"Ġspeak":5116,"Ġ600":5117,"Ġretired":5118,"Ġactress":5119,"airs":5120,"Ġexped":5121,"ĠAndy":5122,"Ġbelief":5123,"Ġhumans":5124,"ĠSteve":5125,"Ġpromoted":5126,"Ġvalue":5127,"urban":5128,"ĠCongress":5129,"ĠPrem":5130,"Ġrapidly":5131,"Ġbattery":5132,"Ġweapons":5133,"lers":5134,"sw":5135,"Ġselling":5136,"Ġbid":5137,"Ġpict":5138,"stream":5139,"Ġstra":5140,"Ġ56":5141,"Ġimag":5142,"Ġweather":5143,"ĠAmericans":5144,"Ġinvasion":5145,"ĠConference":5146,"Ġpasses":5147,"Ġpassing":5148,"Ġpublication":5149,"ĠMinister":5150,"ĠAbu":5151,"Ġsignificantly":5152,"Ġcougar":5153,"Ġreligion":5154,"Ġpromotion":5155,"Ġrecognized":5156,"Ġcreating":5157,"Ġconnected":5158,"Ġsemi":5159,"Ġpremi":5160,"Ġprepared":5161,"Ġdescription":5162,"Ġmultiple":5163,"Ġfederal":5164,"Ġstraight":5165,"Le":5166,"haps":5167,"more":5168,"pass":5169,"uge":5170,"Ġast":5171,"Ġsought":5172,"itch":5173,"Ġbats":5174,"asure":5175,"Ġdata":5176,"oured":5177,"ĠSor":5178,"oty":5179,"ĠFinal":5180,"ĠGord":5181,"Ġchose":5182,"ĠVideo":5183,"ampion":5184,"Ġcolumn":5185,"ĠDevelop":5186,"Ġleader":5187,"Ġfamous":5188,"Ġmatter":5189,"Ġrestaur":5190,"ĠGuard":5191,"Ġdeliver":5192,"Ġpopularity":5193,"arrison":5194,"Ġprotest":5195,"Ġproducers":5196,"Ġvolume":5197,"Ġwalls":5198,"Ġregarded":5199,"Ġseventh":5200,"Ġaspects":5201,"Ġnecessary":5202,"Ġscheduled":5203,"gn":5204,"uild":5205,"Ġsand":5206,"Ġcust":5207,"ano":5208,"Ġreaction":5209,"Ġlaid":5210,"ĠMatt":5211,"ĠPet":5212,"ĠRog":5213,"Ġconvers":5214,"ersey":5215,"agement":5216,"Ġrise":5217,"ella":5218,"Ġ46":5219,"Ġagricult":5220,"Ġspect":5221,"icks":5222,"amese":5223,"Ġflank":5224,"Ġ1981":5225,"Ġstarts":5226,"Ġlanding":5227,"Ġguest":5228,"heless":5229,"Ġaccompan":5230,"ĠVietnamese":5231,"ĠJeff":5232,"Ġnucleus":5233,"Ġsustained":5234,"eer":5235,"Ġtim":5236,"Ġtact":5237,"Ġfought":5238,"isy":5239,"Ġdated":5240,"ĠCamb":5241,"Ġbeaut":5242,"Ġge":5243,"ĠBost":5244,"ĠHart":5245,"ĠHaven":5246,"ulate":5247,"ĠGulf":5248,"Ġrival":5249,"ĠStan":5250,"ieut":5251,"izing":5252,"ographer":5253,"Ġdelay":5254,"ĠAmong":5255,"Ġcastle":5256,"Ġstrik":5257,"Ġcurrently":5258,"Ġemployed":5259,"clusion":5260,"Ġfamilies":5261,"ĠThunderbirds":5262,"Ġphilos":5263,"ĠCambod":5264,"che":5265,"crib":5266,"ees":5267,"heastern":5268,"inity":5269,"Ġouter":5270,"ĠAthlet":5271,"omy":5272,"ads":5273,"ĠLine":5274,"Ġrating":5275,"Ġvirt":5276,"apt":5277,"appe":5278,"Ġtrain":5279,"Ġcontained":5280,"Ġarms":5281,"Ġ41":5282,"ansion":5283,"Ġ700":5284,"Ġunderground":5285,"Ġends":5286,"Ġsupply":5287,"Ġ1939":5288,"Ġprompt":5289,"Ġdrive":5290,"Ġtrial":5291,"Ġphase":5292,"Ġfacilities":5293,"ĠSlam":5294,"Ġfrequently":5295,"Ġbudget":5296,"RA":5297,"lines":5298,"rain":5299,"Ġtree":5300,"Ġsave":5301,"itable":5302,"Ġfict":5303,"Ġbank":5304,"Ġdrop":5305,"Ġreform":5306,"ĠSat":5307,"ĠChe":5308,"iring":5309,"ĠFestival":5310,"ĠNaz":5311,"ĠGi":5312,"ĠGirl":5313,"ĠLes":5314,"ĠOp":5315,"ĠUl":5316,"Ġcontact":5317,"Ġcontributed":5318,"Ġunus":5319,"Ġspring":5320,"ĠAnth":5321,"Ġactors":5322,"orney":5323,"Ġ1942":5324,"insula":5325,"Ġallows":5326,"Ġreflect":5327,"Ġcollected":5328,"ĠPho":5329,"Ġfinds":5330,"Ġnegative":5331,"Ġexecutive":5332,"rupt":5333,"Ġsilver":5334,"Ġclean":5335,"Ġdegree":5336,"ĠRevolution":5337,"Ġbottom":5338,"ĠOxford":5339,"ĠGordon":5340,"yond":5341,"onent":5342,"Ġsen":5343,"Ġcited":5344,"Ġfresh":5345,"standing":5346,"amic":5347,"Ġbeyond":5348,"olved":5349,"ĠFriend":5350,"ĠDen":5351,"ĠNBA":5352,"aved":5353,"ĠEnd":5354,"illo":5355,"Ġshaped":5356,"Ġcomputer":5357,"angers":5358,"ĠSha":5359,"Ġopera":5360,"Ġ130":5361,"Ġ1918":5362,"ĠUSA":5363,"Ġeffective":5364,"Ġentirely":5365,"Ġanimals":5366,"Ġimproved":5367,"Ġsubsequent":5368,"ĠCoast":5369,"ĠStudios":5370,"ĠBetween":5371,"ĠTurner":5372,"ĠCrazy":5373,"ĠEntertainment":5374,"ĠPremier":5375,"ieutenant":5376,"uccess":5377,"Ġbow":5378,"alle":5379,"asc":5380,"Ġmob":5381,"Ġdraft":5382,"Ġgain":5383,"Ġgives":5384,"thur":5385,"ĠWork":5386,"ĠObs":5387,"Ġnotable":5388,"Ġrecently":5389,"Ġ54":5390,"ansas":5391,"ĠMario":5392,"ropium":5393,"Ġ1968":5394,"Ġ1969":5395,"Ġexpress":5396,"Ġsimple":5397,"ashion":5398,"Ġextensive":5399,"ĠMuslim":5400,"Ġmedical":5401,"ĠBoise":5402,"Ġfinding":5403,"ushing":5404,"Ġgradually":5405,"ĠToday":5406,"ĠLewis":5407,"Ġkilometres":5408,"ĠBoston":5409,"cy":5410,"Ġdates":5411,"Ġegg":5412,"ĠCold":5413,"ĠChel":5414,"iments":5415,"Ġstages":5416,"ĠPen":5417,"ĠDer":5418,"ĠGard":5419,"ĠJain":5420,"sea":5421,"Ġ57":5422,"Ġfinals":5423,"Ġsecondary":5424,"ocked":5425,"ĠLeg":5426,"Ġsevere":5427,"Ġ179":5428,"Ġ1975":5429,"Ġexpanded":5430,"azz":5431,"Ġserving":5432,"ĠPeople":5433,"Ġantimony":5434,"Ġprograms":5435,"ĠRussian":5436,"ĠMartin":5437,"cel":5438,"ki":5439,"rong":5440,"Ġtail":5441,"unte":5442,"Ġcamer":5443,"ishes":5444,"Ġbit":5445,"Ġham":5446,"ĠSo":5447,"stead":5448,"ĠCre":5449,"ĠCole":5450,"ĠRail":5451,"Ġitems":5452,"ĠGreg":5453,"ĠJes":5454,"Ġcomes":5455,"ĠKey":5456,"Ġcomposition":5457,"Ġboat":5458,"weet":5459,"Ġcenturies":5460,"Ġ800":5461,"Ġ1965":5462,"Ġ1974":5463,"Ġoccas":5464,"ĠEvita":5465,"Ġcorre":5466,"ĠMagazine":5467,"ĠSystem":5468,"Ġoccupied":5469,"ĠTurk":5470,"ĠUpon":5471,"ĠDemocr":5472,"iations":5473,"ero":5474,"Ġwed":5475,"unction":5476,"unicip":5477,"Ġmo":5478,"Ġmig":5479,"icc":5480,"Ġdaily":5481,"ĠSund":5482,"Ġnaval":5483,"ura":5484,"urches":5485,"ĠId":5486,"ĠDomin":5487,"Ġchair":5488,"berg":5489,"udd":5490,"rence":5491,"oys":5492,"Ġfloor":5493,"Ġsole":5494,"Ġmush":5495,"hess":5496,"Ġdecades":5497,"ancing":5498,"ĠJuan":5499,"Ġdeaths":5500,"Ġcriticism":5501,"Ġfarm":5502,"Ġsuccessfully":5503,"Ġlosses":5504,"Ã¡nh":5505,"ĠCommander":5506,"Ġtreatment":5507,"ĠKhÃ¡nh":5508,"Ġslowly":5509,"Ġindependence":5510,"Ġcommissioned":5511,"Ġexperienced":5512,"Äģda":5513,"Ġfictional":5514,"kin":5515,"ket":5516,"ux":5517,"inem":5518,"Ġsquad":5519,"Ġod":5520,"Ġdial":5521,"ĠAvenue":5522,"aming":5523,"ĠRy":5524,"ĠRome":5525,"ĠFox":5526,"uli":5527,"ĠKir":5528,"ĠStone":5529,"Ġrow":5530,"ĠBridge":5531,"anny":5532,"Ġdidn":5533,"Ġvisual":5534,"Ġsentence":5535,"Ġpersonnel":5536,"Ġengaged":5537,"Ġmyth":5538,"ĠSongs":5539,"ĠCrown":5540,"ĠMacLe":5541,"Ġpurchased":5542,"ĠJamal":5543,"Ġpolicy":5544,"ĠDaniel":5545,"Ġfaith":5546,"ĠJurc":5547,"TC":5548,"hat":5549,"yson":5550,"Ġbass":5551,"iced":5552,"Ġec":5553,"lywood":5554,"lyss":5555,"ĠBart":5556,"ĠBrian":5557,"ĠDo":5558,"ĠLl":5559,"Ġchorus":5560,"Ġunp":5561,"ĠAlf":5562,"Ġsports":5563,"Ġprefer":5564,"Ġ96":5565,"Ġcoal":5566,"Ġcool":5567,"Ġ164":5568,"ĠScience":5569,"Ġ1946":5570,"ĠIsab":5571,"Ġconcrete":5572,"Ġsouthwest":5573,"Ġworldwide":5574,"ĠProv":5575,"Ġcaptain":5576,"Ġpropos":5577,"Ġdeclined":5578,"Ġprotagon":5579,"Ġbegun":5580,"Ġreasons":5581,"Ġnegot":5582,"borough":5583,"ategory":5584,"Ġbriefly":5585,"Ġattract":5586,"ĠTennyson":5587,"Ġchalleng":5588,"ĠThroughout":5589,"ĠDistrict":5590,"bl":5591,"fort":5592,"pet":5593,"Ġfat":5594,"Ġdrawn":5595,"Ġeas":5596,"Ġbeach":5597,"ĠMic":5598,"ĠDubl":5599,"ĠNH":5600,"Ġexclus":5601,"ĠUN":5602,"ĠKn":5603,"Ġnote":5604,"ĠVill":5605,"perial":5606,"ĠAlso":5607,"Ġ73":5608,"Ġ95":5609,"Ġflag":5610,"Ġmoves":5611,"Ġnothing":5612,"Ġincident":5613,"Ġconcer":5614,"ĠProject":5615,"Ġorganiz":5616,"Ġimportance":5617,"Ġroads":5618,"Ġelimin":5619,"ĠBarb":5620,"ĠSimone":5621,"Ġescape":5622,"ĠLiu":5623,"uccessful":5624,"ĠDublin":5625,"iro":5626,"iences":5627,"rang":5628,"Ġ#":5629,"Ġworship":5630,"Ġfur":5631,"Ġhired":5632,"Ġrend":5633,"Ġnor":5634,"ĠCy":5635,"ĠCub":5636,"ĠIgu":5637,"ĠBru":5638,"Ġstreet":5639,"ĠHy":5640,"ĠDun":5641,"ĠLiber":5642,"quake":5643,"ĠKa":5644,"ĠKang":5645,"Ġarc":5646,"ĠHead":5647,"aret":5648,"Ġtend":5649,"Ġ61":5650,"Ġfoundation":5651,"Ġdecade":5652,"Ġlongest":5653,"Ġ1966":5654,"Ġ1952":5655,"Ġ1919":5656,"Ġpossibility":5657,"Ġarrival":5658,"ĠProt":5659,"Ġfavour":5660,"Ġhyd":5661,"chers":5662,"Ġbillion":5663,"Ġchapter":5664,"Ġparticipated":5665,"Ġcalc":5666,"Ġfirm":5667,"Ġenjoyed":5668,"ĠArea":5669,"ĠTemple":5670,"Ġwitness":5671,"Ġresponded":5672,"ĠProduction":5673,"ĠFamily":5674,"Ġpaintings":5675,"Ġaccompanied":5676,"Ġtall":5677,"Ġtheat":5678,"Ġwides":5679,"Ġpul":5680,"Ġmist":5681,"Ġlabor":5682,"ĠMem":5683,"Ġgas":5684,"ĠBas":5685,"Ġstret":5686,"ayer":5687,"ĠRet":5688,"ĠFive":5689,"ĠGA":5690,"Ġheard":5691,"ĠEll":5692,"apes":5693,"ĠUlyss":5694,"iance":5695,"ĠChart":5696,"ĠChains":5697,"ĠAli":5698,"izes":5699,"Ġneck":5700,"Ġ97":5701,"ĠMaria":5702,"Ġapplic":5703,"Ġsetting":5704,"Ġsurre":5705,"Ġdeveloping":5706,"Ġ177":5707,"Ġowners":5708,"Ġ1936":5709,"Ġguard":5710,"Ġoldest":5711,"Ġglob":5712,"Ġagreement":5713,"ĠGovernor":5714,"Ġdollar":5715,"Ġnormal":5716,"Ġplatform":5717,"Ġroughly":5718,"ĠDevelopment":5719,"Ġsenior":5720,"ĠMacLeod":5721,"ĠUlysses":5722,"chest":5723,"iable":5724,"ls":5725,"pread":5726,"Ġhor":5727,"ĠAer":5728,"ĠCD":5729,"ĠMur":5730,"Ġgreen":5731,"ĠBand":5732,"ĠBaby":5733,"ĠRon":5734,"ĠFall":5735,"ĠEs":5736,"istan":5737,"ĠInstead":5738,"Ġchoice":5739,"Ġremn":5740,"Ġconsists":5741,"Ġvert":5742,"Ġacad":5743,"Ġaccident":5744,"Ġadding":5745,"Ġpopulations":5746,"Ġ1973":5747,"ĠIsl":5748,"ĠAdmir":5749,"Ġlasted":5750,"Ġtrip":5751,"ĠBoard":5752,"Ġcombination":5753,"Ġskin":5754,"Ġtechnology":5755,"Ġexistence":5756,"Ġregarding":5757,"Ġviolence":5758,"Ġpoetry":5759,"Ġdominated":5760,"ĠFrancisc":5761,"Ġathletes":5762,"ĠDougl":5763,"ĠAnthony":5764,"ĠTurkish":5765,"iot":5766,"rem":5767,"Ġsn":5768,"eda":5769,"ĠSus":5770,"Ġeth":5771,"adow":5772,"ĠTheatre":5773,"ĠMat":5774,"ĠMod":5775,"iday":5776,"usal":5777,"Ġisol":5778,"ager":5779,"umpt":5780,"Ġcomic":5781,"antly":5782,"gend":5783,"Ġreserv":5784,"Ġspons":5785,"Ġcommittee":5786,"Ġfilming":5787,"Ġacres":5788,"Ġapplied":5789,"Ġsubmar":5790,"Ġcalls":5791,"Ġperforming":5792,"Ġ1967":5793,"ĠTeam":5794,"Ġcollege":5795,"Ġclubs":5796,"Ġcompetitions":5797,"Ġassociation":5798,"Ġclosely":5799,"Ġresear":5800,"Ġexisting":5801,"Ġunsuccessful":5802,"Ġhabitat":5803,"Ġweakened":5804,"ĠIguan":5805,"come":5806,"rum":5807,"Ġaer":5808,"era":5809,"aton":5810,"isers":5811,"aser":5812,"ĠAston":5813,"ĠMov":5814,"ĠMountain":5815,"ĠĠĠĠ":5816,"Ġaltar":5817,"resp":5818,"Ġperhaps":5819,"Ġoverl":5820,"Ġneither":5821,"Ġ62":5822,"ĠMarl":5823,"Ġundert":5824,"Ġinteract":5825,"Ġappeal":5826,"Ġdecre":5827,"Ġcapable":5828,"Ġtransit":5829,"Ġ110":5830,"Ġdistingu":5831,"Ġprovides":5832,"Ġ1914":5833,"Ġbattalions":5834,"Ġserves":5835,"Ġgreatly":5836,"ĠPhill":5837,"Ġdetails":5838,"Ġpainting":5839,"Ġarchaeological":5840,"Ġderived":5841,"Ġlearned":5842,"Ġtells":5843,"Ġreinforce":5844,"Ġpilot":5845,"Ġpurpose":5846,"Ġadministration":5847,"Ġopportunity":5848,"Ġbenef":5849,"Ġceremony":5850,"Ġoccasionally":5851,"aver":5852,"ection":5853,"set":5854,"Ġsort":5855,"Ġfellow":5856,"Ġbought":5857,"Ġdance":5858,"Ġthing":5859,"ĠAri":5860,"ĠAML":5861,"Ġones":5862,"ĠMen":5863,"ĠBishop":5864,"ĠDota":5865,"ĠGab":5866,"Ġseat":5867,"opes":5868,"ichol":5869,"Ġchurches":5870,"Ġcontrib":5871,"Ġreconst":5872,"ĠAlbert":5873,"Ġdescend":5874,"ibbe":5875,"Ġspeaking":5876,"ĠAnonymous":5877,"Ġ85":5878,"Ġsupposed":5879,"Ġsurvey":5880,"pring":5881,"Ġinvited":5882,"Ġreceiving":5883,"ĠCaribbe":5884,"Ġeditor":5885,"Ġheaded":5886,"ĠAdv":5887,"Ġstoryline":5888,"Ġbasket":5889,"Ġtowns":5890,"Ġparalle":5891,"Ġtechnique":5892,"Ġsufficient":5893,"Ġencounter":5894,"ĠOde":5895,"ĠBraz":5896,"Ġinnings":5897,"Ġfilled":5898,"Ġvehicles":5899,"Ġdissipated":5900,"ĠHornung":5901,"ĠChelsea":5902,"ĠDouglas":5903,"ĠCaribbean":5904,"uate":5905,"Ġut":5906,"Ġton":5907,"inner":5908,"erc":5909,"Ġsom":5910,"ato":5911,"Ġfashion":5912,"Ġdrew":5913,"amy":5914,"lying":5915,"ules":5916,"ĠLife":5917,"ĠLieutenant":5918,"Ġseg":5919,"ĠERA":5920,"Ġplum":5921,"ĠKenn":5922,"ĠStew":5923,"ĠStep":5924,"Ġ71":5925,"ĠAsia":5926,"ĠLeon":5927,"Ġdoor":5928,"Ġgoes":5929,"Ġ1945":5930,"Ġ1971":5931,"Ġbranch":5932,"Ġreceive":5933,"Ġdepict":5934,"Ġanything":5935,"pective":5936,"Ġclassified":5937,"ographic":5938,"Ġviewed":5939,"ĠPerry":5940,"ĠGeorg":5941,"ĠAbout":5942,"Ġislands":5943,"Ġtypical":5944,"Ġsurvived":5945,"ÃŃa":5946,"Ġmassive":5947,"Ġaccompl":5948,"ĠCardinal":5949,"Ġstopped":5950,"ĠMaeda":5951,"ructure":5952,"Ġdrama":5953,"Ġsymbol":5954,"ĠConstantine":5955,"ĠHibari":5956,"ĠSummer":5957,"Ġastron":5958,"Ġwidespread":5959,"hu":5960,"pson":5961,"ruli":5962,"win":5963,"Ġaim":5964,"Ġsail":5965,"Ġcrop":5966,"arian":5967,"ala":5968,"ications":5969,"ĠAge":5970,"ĠMTV":5971,"uting":5972,"Ġwhy":5973,"ĠRol":5974,"ĠRod":5975,"agle":5976,"Ġring":5977,"Ġrif":5978,"Ġshared":5979,"Ġtruth":5980,"Ġtrying":5981,"usted":5982,"rait":5983,"Ġ59":5984,"Ġflights":5985,"Ġassass":5986,"Ġacid":5987,"Ġquot":5988,"Ġpoly":5989,"Ġ1982":5990,"ĠWhat":5991,"Ġdistrict":5992,"ĠConst":5993,"ĠQedar":5994,"Ġprotection":5995,"Ġauthors":5996,"ĠBrook":5997,"ĠRomani":5998,"ĠGeorgian":5999,"ĠSimon":6000,"ĠStev":6001,"Ġhousehold":6002,"Ġmissing":6003,"Ġmotion":6004,"ĠGolden":6005,"glades":6006,"Ġsynt":6007,"Ġsettlers":6008,"Ġacquired":6009,"Ġdigital":6010,"Ġsafety":6011,"Ġsoutheast":6012,"Ġrepeated":6013,"ĠFantasy":6014,"Ġconverted":6015,"ibrary":6016,"ati":6017,"Ġha":6018,"ĠTra":6019,"entially":6020,"ĠBond":6021,"ĠBull":6022,"idges":6023,"utation":6024,"ĠRio":6025,"ĠFre":6026,"ĠJud":6027,"iston":6028,"ĠIng":6029,"essed":6030,"ĠUr":6031,"ips":6032,"ĠStadium":6033,"uble":6034,"Ġroutes":6035,"Ġroof":6036,"Ġspacing":6037,"Ġfinish":6038,"Ġevac":6039,"issance":6040,"Ġsubstant":6041,"cki":6042,"Ġlocations":6043,"Ġ160":6044,"Ġ1976":6045,"Ġdepicted":6046,"Ġ1956":6047,"Ġ1913":6048,"Ġ1916":6049,"Ġturns":6050,"Ġexperiment":6051,"Ġplanning":6052,"Ġwatched":6053,"Ġholding":6054,"Ġbaseball":6055,"Ġfunding":6056,"Ġfocused":6057,"ĠOslo":6058,"ĠMoz":6059,"Ġarranged":6060,"ĠHaiti":6061,"Ġsucceeded":6062,"ĠRadio":6063,"ĠFreder":6064,"Ġpermanent":6065,"Ġopinion":6066,"ĠShortly":6067,"Ġatmosphere":6068,"Ġwedding":6069,"VN":6070,"ture":6071,"tty":6072,"Ġi":6073,"Ġign":6074,"inn":6075,"Ġfuel":6076,"Ġbul":6077,"Ġbowl":6078,"Ġindu":6079,"Ġdub":6080,"ĠTim":6081,"ĠCa":6082,"acity":6083,"ĠRow":6084,"ĠJones":6085,"ĠOh":6086,"Ġcho":6087,"Ġchance":6088,"Ġchannel":6089,"Ġexact":6090,"iege":6091,"Ġresident":6092,"Ġ72":6093,"Ġknew":6094,"Ġ81":6095,"Ġdefined":6096,"ifications":6097,"Ġ1943":6098,"Ġ175":6099,"Ġproviding":6100,"ĠAllied":6101,"Ġiniti":6102,"Ġreality":6103,"bridge":6104,"Ġdecline":6105,"Ġcorresp":6106,"idden":6107,"Ġcreator":6108,"Ġpenalty":6109,"Ġearthquake":6110,"Ġcredited":6111,"hetic":6112,"ĠVenus":6113,"ĠIguanodon":6114,"ĠBrazil":6115,"Ġcorrespond":6116,"GN":6117,"eed":6118,"ky":6119,"uan":6120,"Ġtied":6121,"indu":6122,"Ġwins":6123,"Ġinner":6124,"Ġmic":6125,"Ġdating":6126,"ĠAst":6127,"stances":6128,"Ġeu":6129,"ĠIGN":6130,"ivered":6131,"ĠHindu":6132,"ĠRangers":6133,"ĠDream":6134,"ĠGully":6135,"ĠLenn":6136,"agre":6137,"Ġrich":6138,"okes":6139,"Ġjack":6140,"Ġpregn":6141,"ĠArts":6142,"Ġ94":6143,"awa":6144,"Ġcharter":6145,"Ġflu":6146,"Ġassemb":6147,"Ġgrav":6148,"Ġsupplies":6149,"Ġ1963":6150,"Ġ112":6151,"Ġdownlo":6152,"Ġairport":6153,"Ġheads":6154,"Ġ250":6155,"Ġways":6156,"Ġexplos":6157,"Ġdelivered":6158,"Ġlaws":6159,"Ġglass":6160,"Ġseparated":6161,"Ġrenamed":6162,"ĠEverglades":6163,"Ġthousands":6164,"ĠSecretary":6165,"ĠMorrison":6166,"ĠAdditionally":6167,"uilding":6168,"ĠPhoen":6169,"ĠStevens":6170,"Å¡":6171,"Ġice":6172,"inated":6173,"Ġwick":6174,"Ġcit":6175,"itan":6176,"isf":6177,"Ġeyes":6178,"ĠBh":6179,"ĠHomer":6180,"ĠRun":6181,"anda":6182,"ĠGre":6183,"ĠGram":6184,"ĠLuc":6185,"estone":6186,"Ġrac":6187,"Ġrural":6188,"sey":6189,"ĠUTC":6190,"iece":6191,"Ġrose":6192,"outs":6193,"Ġteaching":6194,"Ġoverse":6195,"Ġsecure":6196,"Ġregime":6197,"Ġemperor":6198,"Ġ176":6199,"ĠAustralians":6200,"ĠCommittee":6201,"Ġturning":6202,"Ġcommanded":6203,"Ġopposition":6204,"ĠBroad":6205,"ĠSimilar":6206,"Ġcertified":6207,"Ġinspir":6208,"Ġremainder":6209,"Ġindicate":6210,"ĠOffice":6211,"Ġconsisting":6212,"ĠHollywood":6213,"ĠBradford":6214,"ĠArchae":6215,"ĠAlexander":6216,"Ġinstrument":6217,"ĠColumbia":6218,"Ġsplit":6219,"ĠFriends":6220,"ĠSunday":6221,"BS":6222,"RE":6223,"gÃ©":6224,"jillo":6225,"pany":6226,"rons":6227,"Ġurban":6228,"Ġaware":6229,"Ġdog":6230,"Ġdru":6231,"ĠSap":6232,"Ġeld":6233,"ĠCle":6234,"igation":6235,"ĠHoly":6236,"ĠPers":6237,"ĠPatt":6238,"ĠNative":6239,"ĠGang":6240,"ĠLy":6241,"Ġattached":6242,"Ġ77":6243,"ĠMarine":6244,"Ġcolour":6245,"Ġnoisy":6246,"Ġquite":6247,"ologists":6248,"Ġhighlight":6249,"Ġaddress":6250,"Ġ1978":6251,"Ġoccurs":6252,"Ġ1953":6253,"Ġcourts":6254,"Ġreferences":6255,"Ġaffect":6256,"Ġtechnical":6257,"Ġvalley":6258,"Ġrevolution":6259,"ĠMaryland":6260,"Ġeconomy":6261,"Ġestablishment":6262,"Ġassistance":6263,"ĠMontana":6264,"Ġjourney":6265,"ĠCroatian":6266,"ĠCritical":6267,"Ġpowers":6268,"ĠDirector":6269,"ĠTrujillo":6270,"Ġdrug":6271,"lik":6272,"ĪĴ":6273,"Ġtable":6274,"inosaur":6275,"Ġpet":6276,"Ġdry":6277,"ilton":6278,"Ġlin":6279,"ela":6280,"ĠBern":6281,"ider":6282,"ĠHan":6283,"ĠDown":6284,"apers":6285,"ewhere":6286,"ighter":6287,"aked":6288,"ĠâĪĴ":6289,"Ġleaves":6290,"ĠChronic":6291,"Ġresist":6292,"ĠAlan":6293,"ressive":6294,"Ġfinishing":6295,"issipp":6296,"ĠArthur":6297,"Ġinterior":6298,"Ġstudied":6299,"Ġleads":6300,"Ġdisturb":6301,"Ġdistribution":6302,"Ġreputation":6303,"Ġsuccessor":6304,"ĠRoxas":6305,"Ġviews":6306,"ivalent":6307,"ĠMississipp":6308,"Ġsurviv":6309,"Ġproducing":6310,"Ġmissions":6311,"ĠWalter":6312,"Ġdenied":6313,"Ġadapted":6314,"Ġshooting":6315,"Ġmethods":6316,"Ġportrayed":6317,"ĠCharlie":6318,"ĠEngineer":6319,"Ġstrengthen":6320,"ĠMississippi":6321,"ych":6322,"Ġsle":6323,"Ġhall":6324,"ĠSub":6325,"Ġlane":6326,"uration":6327,"ĠBur":6328,"ĠRel":6329,"ĠWind":6330,"andy":6331,"ĠLow":6332,"agues":6333,"Ġrub":6334,"rier":6335,"ifying":6336,"Ġsud":6337,"ardo":6338,"Ġkits":6339,"ĠKil":6340,"Ġrob":6341,"Ġoffense":6342,"Ġupd":6343,"Ġprey":6344,"Ġgameplay":6345,"Ġentry":6346,"Ġentering":6347,"Ġmaintain":6348,"Ġcharacteristics":6349,"Ġ1915":6350,"Ġcamps":6351,"Ġprotected":6352,"Ġcrime":6353,"ĠWithin":6354,"Ġpolitics":6355,"Ġgetting":6356,"ĠRecording":6357,"ĠActivision":6358,"ĠHoward":6359,"Ġimmig":6360,"senal":6361,"ĠSamuel":6362,"Ġworst":6363,"Ġdismissed":6364,"Ġintelligence":6365,"OT":6366,"SB":6367,"born":6368,"hi":6369,"kins":6370,"Ġcrown":6371,"Ġpuzz":6372,"ĠSnow":6373,"ador":6374,"ĠMul":6375,"Ġstones":6376,"ĠHon":6377,"ĠHug":6378,"ette":6379,"ĠRidge":6380,"osa":6381,"ĠLu":6382,"ĠJac":6383,"ĠJay":6384,"ĠEdu":6385,"Ġvon":6386,"Ġexerc":6387,"Ġnoting":6388,"ipl":6389,"ells":6390,"Ġattributed":6391,"Ġknots":6392,"Ġ98":6393,"ĠMarsh":6394,"Ġcharges":6395,"ropri":6396,"Ġcapacity":6397,"Ġmonarch":6398,"Ġmonument":6399,"ĠPlunk":6400,"Ġclasses":6401,"Ġreplace":6402,"Ġbasin":6403,"Ġfranch":6404,"Ġnovels":6405,"ĠStef":6406,"Ġcharts":6407,"Ġintroduction":6408,"Ġinterested":6409,"ĠCalvert":6410,"Ġholds":6411,"offman":6412,"Ġdiscussed":6413,"Ġdollars":6414,"Ġmushroom":6415,"ĠIsabella":6416,"ecess":6417,"host":6418,"town":6419,"var":6420,"erog":6421,"Ġworth":6422,"Ġcab":6423,"enge":6424,"Ġbaby":6425,"Ġpal":6426,"Ġpound":6427,"Ġmort":6428,"icial":6429,"Ġdie":6430,"ĠSound":6431,"Ġlic":6432,"elve":6433,"ĠML":6434,"ivity":6435,"ĠPope":6436,"ĠFar":6437,"ĠDar":6438,"ĠDNA":6439,"ĠDanny":6440,"ĠWall":6441,"ĠNBC":6442,"ĠJersey":6443,"Ġsector":6444,"rien":6445,"Ġvic":6446,"Ġvary":6447,"Ġvision":6448,"opher":6449,"ameter":6450,"ources":6451,"Ġagent":6452,"Ġoffers":6453,"angerous":6454,"Ġ66":6455,"Ġpublisher":6456,"oba":6457,"ajev":6458,"Ġ1948":6459,"Ġdescribing":6460,"Ġgeneration":6461,"Ġmoder":6462,"Ġ1917":6463,"Ġappearing":6464,"Ġmedieval":6465,"Ġfields":6466,"Ġstatement":6467,"Ġhistoric":6468,"Ġ1890":6469,"Ġcoastal":6470,"Ġpredecess":6471,"Ġelectric":6472,"Ġruled":6473,"Ġrules":6474,"Ġaccounts":6475,"Ġyounger":6476,"ĠWeekly":6477,"ĠSarajev":6478,"ĠLisa":6479,"ĠIndustry":6480,"ĠSarajevo":6481,"can":6482,"mans":6483,"Ã¨":6484,"intend":6485,"erted":6486,"orough":6487,"Ġcaught":6488,"Ġcinem":6489,"itors":6490,"ena":6491,"Ġtomb":6492,"ĠHo":6493,"ĠHard":6494,"ĠRay":6495,"ĠDaily":6496,"ĠLess":6497,"iful":6498,"Ġexpect":6499,"Ġexception":6500,"Ġplants":6501,"Ġarts":6502,"ube":6503,"ĠVol":6504,"Ġdesire":6505,"ĠYe":6506,"ĠYank":6507,"formation":6508,"attle":6509,"Ġsomeone":6510,"Ġapart":6511,"Ġsoil":6512,"Ġretire":6513,"Ġ1979":6514,"Ġ1951":6515,"Ġbasic":6516,"Ġeverything":6517,"Ġdiscovery":6518,"Ġdifficulty":6519,"Ġrecognition":6520,"Ġtribes":6521,"Ġzone":6522,"Ġforests":6523,"Ġrarely":6524,"Ġconsiderable":6525,"ĠStrand":6526,"ĠVictoria":6527,"Ġemotional":6528,"Ġninth":6529,"ĠDestiny":6530,"Ġarticle":6531,"Ġrestaurant":6532,"cribed":6533,"ĠStephen":6534,"ĠFrederick":6535,"ĠYankovic":6536,"OC":6537,"cop":6538,"ients":6539,"vis":6540,"Ġtaught":6541,"orer":6542,"itage":6543,"Ġbond":6544,"ĠTop":6545,"ĠAround":6546,"igades":6547,"Ġstore":6548,"ĠHell":6549,"othes":6550,"ĠPress":6551,"Ġconve":6552,"ĠGil":6553,"ĠEarl":6554,"ĠInit":6555,"Ġshore":6556,"Ġkings":6557,"Ġcontest":6558,"Ġmanner":6559,"Ġdisappe":6560,"Ġenl":6561,"Ġshel":6562,"Ġdoct":6563,"Ġ1961":6564,"Ġlanded":6565,"Ġ1954":6566,"ĠTelevision":6567,"Ġevening":6568,"Ġopponents":6569,"Ġreplacement":6570,"ĠAbb":6571,"Ġinvolvement":6572,"Ġpitch":6573,"graded":6574,"coming":6575,"Ġnomination":6576,"Ġspecifically":6577,"Ġchapel":6578,"Ġwooden":6579,"ĠResear":6580,"Ġcolonial":6581,"ĠJoe":6582,"Ġhotel":6583,"ĠSomali":6584,"Ġrhyth":6585,"ĠClarkson":6586,"Ġthirty":6587,"ĠRolling":6588,"ĠMozamb":6589,"Ġsudden":6590,"Brien":6591,"aire":6592,"cation":6593,"nest":6594,"rin":6595,"ym":6596,"ys":6597,"Ã¶":6598,"Ġfan":6599,"Ġfair":6600,"ingale":6601,"Ġmine":6602,"Ġhope":6603,"ĠSanta":6604,"ĠFame":6605,"ĠFlow":6606,"ĠDom":6607,"ĠDet":6608,"Ġconsequ":6609,"ĠNether":6610,"ĠLords":6611,"ĠJif":6612,"ateur":6613,"Ġimpr":6614,"Ġwealth":6615,"Ġ69":6616,"Ġsecured":6617,"ĠAnton":6618,"Ġ87":6619,"Ġsoft":6620,"Ġaccur":6621,"ĠLee":6622,"Ġ1937":6623,"Ġbelieves":6624,"ĠOrder":6625,"psons":6626,"Ġcommunities":6627,"ĠSimpsons":6628,"Ġdivine":6629,"ĠRoberts":6630,"aska":6631,"Ġpoems":6632,"ĠDuke":6633,"ĠSingles":6634,"ĠJerusal":6635,"ĠCampb":6636,"ĠSkye":6637,"Ġintersection":6638,"Ġcontroversy":6639,"Ġpicked":6640,"ĠColonel":6641,"ĠCastle":6642,"ĠWilde":6643,"Ġrecommended":6644,"Ġfungus":6645,"ĠBono":6646,"ĠFrancisco":6647,"ĠJifna":6648,"ĠJerusalem":6649,"LI":6650,"ao":6651,"eenth":6652,"nell":6653,"named":6654,"rations":6655,"theless":6656,"rets":6657,"reets":6658,"itled":6659,"Ġfaces":6660,"Ġmunicip":6661,"ĠTel":6662,"Ġlov":6663,"ĠMaster":6664,"ĠRÃ©":6665,"ĠFish":6666,"ĠDis":6667,"Ġconte":6668,"ĠWars":6669,"ava":6670,"Ġpros":6671,"Ġvan":6672,"ultane":6673,"Ġreleg":6674,"Ġwhereas":6675,"Ġsigning":6676,"Ġ1955":6677,"Ġextrem":6678,"ĠTrack":6679,"Ġstandards":6680,"Ġlegs":6681,"Ġjoint":6682,"ĠEliz":6683,"ĠHamilton":6684,"Ġappoint":6685,"Ġmissed":6686,"Ġlaunch":6687,"Ġdrawing":6688,"Ġvolunte":6689,"ĠÃĹ":6690,"ĠOlympics":6691,"Ġscholar":6692,"Ġconcerns":6693,"ĠMilitary":6694,"Ġleadership":6695,"Ġprincipal":6696,"Ġspecimens":6697,"ĠAdams":6698,"ĠTransport":6699,"ĠIndependent":6700,"ĠArgentina":6701,"Ġorganizations":6702,"Ġextremely":6703,"30":6704,"Ġsession":6705,"atures":6706,"Ġcard":6707,"amber":6708,"ĠCat":6709,"ĠCop":6710,"ĠCory":6711,"Ġgal":6712,"ĠBi":6713,"Ġstream":6714,"ĠHere":6715,"ceived":6716,"ĠRif":6717,"ĠFire":6718,"Ġconference":6719,"ĠWi":6720,"ĠWalk":6721,"Ġ1900":6722,"osure":6723,"avia":6724,"uma":6725,"istol":6726,"Ġexisted":6727,"Ġyouth":6728,"pton":6729,"Ġparties":6730,"Ġpartners":6731,"Ġteeth":6732,"Ġjazz":6733,"wealth":6734,"Ġspeech":6735,"Ġcommit":6736,"ĠMarc":6737,"Ġshowing":6738,"Ġdistributed":6739,"Ġ1958":6740,"ĠBeach":6741,"ĠForces":6742,"Ġapproached":6743,"Ġtries":6744,"ĠPrime":6745,"engers":6746,"Ġrelationships":6747,"Äģn":6748,"Ġtreaty":6749,"Ġdiameter":6750,"Ġthreatened":6751,"Ġsurrounded":6752,"Ġemerged":6753,"Ġchemical":6754,"ranean":6755,"ĠWriting":6756,"ĠBanai":6757,"Ġconnection":6758,"Ġeuropium":6759,"ez":6760,"gie":6761,"ipe":6762,"wise":6763,"Ġwants":6764,"Ġwrong":6765,"edom":6766,"alent":6767,"Ġpack":6768,"Ġpage":6769,"Ġhill":6770,"ĠSpring":6771,"add":6772,"acent":6773,"ĠMot":6774,"Ġstem":6775,"ĠHu":6776,"Ġalien":6777,"ĠFel":6778,"ĠWy":6779,"Ġshark":6780,"Ġleuk":6781,"ideos":6782,"Ġdisapp":6783,"ĠYan":6784,"Ġ79":6785,"Ġproduct":6786,"Ġ1949":6787,"Ġ1977":6788,"Ġdiscip":6789,"Ġstrateg":6790,"ĠCarter":6791,"ĠPlot":6792,"Ã©t":6793,"Ġsolid":6794,"Ġhistorians":6795,"Ġseeing":6796,"Ġcrossed":6797,"Ġfacing":6798,"Ġregularly":6799,"Ġconduct":6800,"ĠDepression":6801,"Ġrailway":6802,"Ġimmediate":6803,"Ġfiring":6804,"Ġfavorite":6805,"Ġhoped":6806,"Ġdocumentary":6807,"Ġinstitutions":6808,"Ġlbw":6809,"Ġalternative":6810,"Ġratings":6811,"ĠNorman":6812,"Ġexpedition":6813,"ĠRoger":6814,"Ġunusual":6815,"ĠModern":6816,"Ġisolated":6817,"Ġsynthes":6818,"ĠLennon":6819,"dal":6820,"inals":6821,"Ġsoul":6822,"union":6823,"atus":6824,"Ġcold":6825,"Ġbes":6826,"Ġinland":6827,"entions":6828,"owie":6829,"usad":6830,"ĠDA":6831,"ĠWW":6832,"ĠWat":6833,"ĠGoffman":6834,"abeth":6835,"Ġadmitted":6836,"oked":6837,"Ġscrap":6838,"Ġpartial":6839,"ĠUnlike":6840,"Ġregional":6841,"Ġassumed":6842,"Ġindig":6843,"Ġsym":6844,"Ġ121":6845,"iversary":6846,"Ġbright":6847,"Ġexpansion":6848,"Ġowner":6849,"Ġdesignation":6850,"Ġwarm":6851,"Ġpointed":6852,"ossible":6853,"ĠHergÃ©":6854,"Ġanniversary":6855,"Ġreviewer":6856,"Ġbreaking":6857,"Ġdemol":6858,"Ġstrongly":6859,"Ġchanging":6860,"Ġdetail":6861,"Ġdestroyers":6862,"Ġprotests":6863,"ombat":6864,"Ġtreated":6865,"ÃŃvar":6866,"Ġveget":6867,"Ġlanguages":6868,"Ġsequel":6869,"ooth":6870,"Ġmotor":6871,"Ġliterary":6872,"Ġexamples":6873,"Ġbringing":6874,"ĠJaneiro":6875,"Ġwatershed":6876,"ĠHuman":6877,"ĠBolÃŃvar":6878,"Ġmessage":6879,"Ġduties":6880,"ĠRyan":6881,"Ġprotagonist":6882,"ĠSaprang":6883,"ĠKilmer":6884,"Ġfranchise":6885,"friend":6886,"gas":6887,"rab":6888,"war":6889,"Ã¼":6890,"Ġtie":6891,"onica":6892,"Ġske":6893,"orters":6894,"Ġfish":6895,"ingly":6896,"Ġharm":6897,"ĠTrib":6898,"ĠTower":6899,"ĠAR":6900,"Ġeighth":6901,"ĠIron":6902,"imet":6903,"Ġstadium":6904,"ĠFern":6905,"ĠWimb":6906,"osite":6907,"ĠNap":6908,"Ġsections":6909,"Ġorchest":6910,"Ġchampion":6911,"ĠKat":6912,"ĠKel":6913,"Ġtra":6914,"ĠChief":6915,"Ġintention":6916,"ĠHearts":6917,"Ġaged":6918,"Ġoverw":6919,"ibl":6920,"Ġoutf":6921,"Ġmeets":6922,"aws":6923,"Ġretreat":6924,"Ġindicated":6925,"Ġ1983":6926,"Ġminister":6927,"ledon":6928,"Ġdepartment":6929,"Ġairline":6930,"Ġwinner":6931,"Ġapproved":6932,"Ġmarks":6933,"Ġdetailed":6934,"Ġgenre":6935,"Ġcoup":6936,"Ġimprove":6937,"Ġcircum":6938,"Ġengineering":6939,"Ġcompletion":6940,"Ġabsor":6941,"ĠLawton":6942,"Ġancest":6943,"Ġattracted":6944,"ĠBCE":6945,"Ġspecimen":6946,"Ġwearing":6947,"Ġrescue":6948,"ĠBurns":6949,"Ġeggs":6950,"Ġeasily":6951,"Ġacademic":6952,"ĠGeorgia":6953,"ĠResearch":6954,"ĠWimbledon":6955,"aug":6956,"eor":6957,"iour":6958,"know":6959,"nie":6960,"och":6961,"Ġur":6962,"Ġib":6963,"ona":6964,"Ġsun":6965,"orous":6966,"arp":6967,"ician":6968,"Ġhappy":6969,"ĠAD":6970,"ĠSquare":6971,"Ġlap":6972,"aments":6973,"ĠMid":6974,"ĠIV":6975,"Ġgather":6976,"ĠBul":6977,"ĠBase":6978,"ĠBank":6979,"ĠHung":6980,"ĠPerson":6981,"ĠWin":6982,"Ġru":6983,"allow":6984,"ockey":6985,"ĠStation":6986,"Ġtrail":6987,"pping":6988,"ogether":6989,"oking":6990,"ĠThird":6991,"ensus":6992,"ĠDev":6993,"Ġacknow":6994,"Ġmuscar":6995,"Ġaccused":6996,"Ġcoord":6997,"Ġemp":6998,"ĠGerard":6999,"Ġcarbon":7000,"ĠColor":7001,"Ġattempting":7002,"Ġeffectively":7003,"istered":7004,"Ġlooked":7005,"Ġreading":7006,"Ġsurviving":7007,"Ġpractices":7008,"Ġterritories":7009,"ĠRichardson":7010,"Ġcivilian":7011,"Ġtraveled":7012,"Ġfeeling":7013,"Ġassistant":7014,"ĠTerrit":7015,"ĠJean":7016,"Ġsettled":7017,"Ġchallenge":7018,"ĠSomalia":7019,"Ġconstitution":7020,"Ġencouraged":7021,"Ġterminus":7022,"Ġstarling":7023,"ĠRhodes":7024,"ĠCambridge":7025,"Ġadjacent":7026,"Ġcitiz":7027,"ban":7028,"bur":7029,"body":7030,"break":7031,"cape":7032,"mod":7033,"Ġsell":7034,"Ġfer":7035,"Ġbal":7036,"Ġmut":7037,"Ġdock":7038,"Ġthin":7039,"ĠSa":7040,"ĠSi":7041,"ĠSav":7042,"Ġnick":7043,"amm":7044,"ĠMortal":7045,"thy":7046,"Ġstreak":7047,"ĠRos":7048,"Ġraces":7049,"Ġvideos":7050,"illing":7051,"ewhat":7052,"Ġshots":7053,"ĠKombat":7054,"Ġcompounds":7055,"Ġrecre":7056,"Ġrecalled":7057,"Ġpartly":7058,"Ġpreced":7059,"Ġevil":7060,"ĠAniston":7061,"Ġ91":7062,"Ġ99":7063,"Ġ88":7064,"Ġunderw":7065,"Ġinterchange":7066,"Ġdecor":7067,"Ġcrest":7068,"Ġobtained":7069,"Ġ1910":7070,"Ġextreme":7071,"Ġpossession":7072,"Ġvisible":7073,"Ġstands":7074,"Ġ1909":7075,"Ġconvoy":7076,"ĠKeamy":7077,"Ġidentity":7078,"Ġ1880":7079,"Ġarmor":7080,"Ġseemed":7081,"Ġgrey":7082,"Ġpainted":7083,"Ġbrothers":7084,"Ġmulti":7085,"Ġtowers":7086,"Ġarrangement":7087,"ĠFormula":7088,"Ġrecovered":7089,"Ġscientific":7090,"ĠGarc":7091,"Ġinhabit":7092,"Ġcandidate":7093,"ĠJournal":7094,"ĠCommonwealth":7095,"Ġromantic":7096,"ĠAttorney":7097,"Ġagricultural":7098,"ĠJesus":7099,"ĠAdmiral":7100,"Ġsomewhat":7101,"Ġinspiration":7102,"bie":7103,"dess":7104,"Ġtone":7105,"Ġtheatre":7106,"Ġsan":7107,"Ġocean":7108,"isis":7109,"Ġhits":7110,"ĠTest":7111,"amin":7112,"Ġgall":7113,"ivals":7114,"thosaurus":7115,"ĠPine":7116,"ĠPower":7117,"emia":7118,"ĠWolf":7119,"ĠLanc":7120,"Ġhear":7121,"Ġselect":7122,"umps":7123,"Ġproceed":7124,"Ġshif":7125,"Ġcloud":7126,"Ġteach":7127,"achus":7128,"Ġspaces":7129,"ĠAnc":7130,"Ġrelative":7131,"ĠMarines":7132,"Ġverse":7133,"Ġfled":7134,"Ġacts":7135,"ropol":7136,"Ġpreserved":7137,"Ġ122":7138,"Ġmaint":7139,"ĠJohnston":7140,"Ġestate":7141,"ekÄģn":7142,"ĠGermans":7143,"Ġimplement":7144,"ĠFraser":7145,"ennis":7146,"Ġpassage":7147,"Ġ1931":7148,"Ġ1935":7149,"Ġ1912":7150,"ĠGuy":7151,"Ġfootage":7152,"ĠPoland":7153,"Ġequal":7154,"Ġconvin":7155,"Ġcatch":7156,"Ġcycle":7157,"Ġsuffering":7158,"ĠIslands":7159,"Ġreduce":7160,"Ġhosted":7161,"Ġfunds":7162,"Ġindustrial":7163,"ĠArabic":7164,"ĠEvery":7165,"Ġlinked":7166,"Ġspirit":7167,"ĠType":7168,"Ġsculpture":7169,"Ġbasketball":7170,"ĠPlunketts":7171,"ĠCorythosaurus":7172,"bishop":7173,"how":7174,"iary":7175,"rast":7176,"sewhere":7177,"vious":7178,"Ã¤":7179,"Ġere":7180,"Ġtailed":7181,"Ġau":7182,"Ġsessions":7183,"Ġsiege":7184,"Ġwars":7185,"unior":7186,"itals":7187,"arning":7188,"Ġps":7189,"Ġmis":7190,"Ġmap":7191,"Ġhip":7192,"illy":7193,"sta":7194,"Ġlob":7195,"ĠCE":7196,"ĠBos":7197,"using":7198,"ĠProte":7199,"Ġconqu":7200,"ĠNick":7201,"ĠNintend":7202,"ĠLoc":7203,"Ġdeck":7204,"ĠEc":7205,"peare":7206,"ĠInc":7207,"Ġchronic":7208,"abled":7209,"Ġlegend":7210,"Ġlearning":7211,"Ġunf":7212,"Ġdispl":7213,"Ġserial":7214,"ĠYour":7215,"ĠRele":7216,"aware":7217,"Ġflo":7218,"Ġincome":7219,"ĠLev":7220,"ificial":7221,"ĠShakes":7222,"Ġcontinuing":7223,"Ġexpensive":7224,"Ġprovince":7225,"Ġattacking":7226,"Ġ1932":7227,"ĠAllah":7228,"Ġreviewers":7229,"Ġopposite":7230,"Ġmedium":7231,"Ġdestruction":7232,"Ġdebate":7233,"attered":7234,"Ġtwelve":7235,"ĠExp":7236,"Ġcirculation":7237,"Ġresponsibility":7238,"Ġdefended":7239,"Ġstayed":7240,"Ġblocks":7241,"going":7242,"ĠHotel":7243,"ĠFIA":7244,"Ġequipped":7245,"Ġconcerned":7246,"Ġcontroversial":7247,"Ġadults":7248,"Ġcomposer":7249,"Ġincorporated":7250,"ĠPeninsula":7251,"Ġcorrect":7252,"ĠMarlborough":7253,"Ġdownload":7254,"erogative":7255,"ĠNintendo":7256,"ĠShakespeare":7257,"hm":7258,"ka":7259,"xts":7260,"ycl":7261,"yles":7262,"Ġic":7263,"onic":7264,"orious":7265,"Ġble":7266,"Ġbay":7267,"Ġinaug":7268,"Ġpric":7269,"Ġpushed":7270,"icts":7271,"Ġnone":7272,"uri":7273,"Ġgone":7274,"ĠPul":7275,"ĠFair":7276,"agas":7277,"Ġritual":7278,"ĠOwen":7279,"Ġproport":7280,"ĠKar":7281,"Ġreserve":7282,"Ġspin":7283,"Ġsongwrit":7284,"Ġpool":7285,"iamond":7286,"Ġdepos":7287,"inking":7288,"Ġpassengers":7289,"Ġwilling":7290,"Ġ1911":7291,"Ġdriving":7292,"ĠFei":7293,"Ġ1921":7294,"Ġ1929":7295,"ĠFlight":7296,"Ġlowest":7297,"Ġvictims":7298,"Ġpatrol":7299,"ĠPalace":7300,"ĠPalmy":7301,"Ġpromote":7302,"Ġmeetings":7303,"Ġcrossing":7304,"Ġaccommod":7305,"Ġfalling":7306,"Ġmeasures":7307,"stitution":7308,"Ġrebels":7309,"ĠLawrence":7310,"Ġobservations":7311,"Ġvoted":7312,"ĠPatrick":7313,"Ġthrowing":7314,"hews":7315,"ĠStanley":7316,"Ġremnants":7317,"Ġparallel":7318,"ĠConstruction":7319,"Ġinitiative":7320,"Ġkitsune":7321,"ĠNetherlands":7322,"burg":7323,"rant":7324,"ses":7325,"yard":7326,"zi":7327,"zen":7328,"inje":7329,"Ġsight":7330,"Ġcraft":7331,"itated":7332,"Ġinte":7333,"anning":7334,"Ġhat":7335,"ĠSweet":7336,"ĠChen":7337,"ĠCook":7338,"olay":7339,"ĠBert":7340,"iminal":7341,"ĠHospital":7342,"uscript":7343,"emeter":7344,"agn":7345,"Ġcomments":7346,"Ġexha":7347,"Ġplain":7348,"oca":7349,"ĠStory":7350,"ĠStock":7351,"ogen":7352,"onder":7353,"arked":7354,"formed":7355,"Ġ82":7356,"Ġflat":7357,"Ġacclaim":7358,"Ġretained":7359,"Ġdefences":7360,"Ġgross":7361,"Ġ162":7362,"Ġ1962":7363,"Ġreturns":7364,"Ġmusicians":7365,"Ġ1959":7366,"Ġgovernor":7367,"Ġ1938":7368,"Ġclassical":7369,"ĠGeoff":7370,"ĠOrgan":7371,"Ġinvolving":7372,"Ġrepresenting":7373,"Ġpatron":7374,"Ġequivalent":7375,"Ġgoddess":7376,"Ġpraise":7377,"ĠAtlanta":7378,"Ġwatch":7379,"Ġvillages":7380,"Ġpitcher":7381,"Ġdifficulties":7382,"Ġsuperior":7383,"Ġraise":7384,"ĠPlayer":7385,"Ġbiography":7386,"ĠQueens":7387,"Ġintensified":7388,"Ġobjects":7389,"ĠEmperor":7390,"Ġabsol":7391,"Ġunderstand":7392,"ĠPitman":7393,"Ġcarrying":7394,"Ġvessels":7395,"ĠKorean":7396,"Ġfixed":7397,"Ġbatsman":7398,"ĠGuardian":7399,"ĠCambodia":7400,"Ġoccasions":7401,"Ġhydro":7402,"Ġglobal":7403,"Ġethn":7404,"ĠStefani":7405,"ĠElizabeth":7406,"ĠGarcÃŃa":7407,"emetery":7408,"de":7409,"uct":7410,"wich":7411,"err":7412,"Ġsam":7413,"Ġsulf":7414,"Ġow":7415,"Ġcry":7416,"Ġfal":7417,"Ġfine":7418,"Ġmart":7419,"Ġdivers":7420,"entures":7421,"ĠCru":7422,"Ġonline":7423,"Ġgend":7424,"terbury":7425,"ĠBass":7426,"ĠHun":7427,"Ġalleg":7428,"Ġansw":7429,"ĠLab":7430,"ĠJoy":7431,"Ġsees":7432,"Ġray":7433,"ĠOur":7434,"Ġprohib":7435,"Ġorn":7436,"Ġexchange":7437,"ĠChannel":7438,"Ġresources":7439,"Ġju":7440,"Ġcommitted":7441,"Ġ74":7442,"Ġsimultane":7443,"ĠMega":7444,"ĠCanterbury":7445,"Ġperiods":7446,"ĠSpace":7447,"Ġcovers":7448,"Ġdefeating":7449,"pecies":7450,"Ġinfluences":7451,"ĠDesign":7452,"Ġdivisions":7453,"Ġlimit":7454,"Ġneeds":7455,"Ġaccompany":7456,"Ġmoral":7457,"Ġcollaps":7458,"Ġrenew":7459,"Ġreveals":7460,"ĠMediter":7461,"Ġescort":7462,"ĠEnterprise":7463,"Ġpurchase":7464,"Ġnarrative":7465,"Ġvoiced":7466,"Ġbehaviour":7467,"ĠPalestine":7468,"ĠAthletic":7469,"Ġcamera":7470,"Ġpreferred":7471,"Ġconcerts":7472,"ĠProtest":7473,"ĠAerith":7474,"ĠPhillies":7475,"Ġsurvivors":7476,"Ġcontext":7477,"ĠMediterranean":7478,"fare":7479,"graf":7480,"mine":7481,"rig":7482,"uilt":7483,"Ġtick":7484,"rel":7485,"Ġcul":7486,"Ġfold":7487,"esc":7488,"esi":7489,"ĠCorn":7490,"ĠMu":7491,"ĠMother":7492,"ĠBark":7493,"Ġash":7494,"ĠRaff":7495,"ĠRugby":7496,"ĠFurt":7497,"ĠDC":7498,"ĠDi":7499,"ĠWicc":7500,"ĠNow":7501,"ĠLate":7502,"ĠLink":7503,"ĠLabor":7504,"Ġrugby":7505,"resents":7506,"apped":7507,"ophy":7508,"atech":7509,"Ġexit":7510,"uda":7511,"ĠStop":7512,"elli":7513,"ureau":7514,"Ġclo":7515,"Ġagree":7516,"Ġfeather":7517,"Ġproducts":7518,"Ġformally":7519,"Ġfollowers":7520,"Ġincom":7521,"Ġ06":7522,"Ġ07":7523,"Ġ161":7524,"annah":7525,"Ġoperating":7526,"raph":7527,"Ġrepresents":7528,"ooking":7529,"ahl":7530,"Ġconsiders":7531,"ĠUSD":7532,"Ġrefers":7533,"Ġcovering":7534,"Ġelse":7535,"Ġelabor":7536,"Ġcriticised":7537,"Ġdetect":7538,"Ġdoesn":7539,"Ġsteel":7540,"Ġcloser":7541,"ĠChampionships":7542,"ĠMarkgraf":7543,"Ġtribut":7544,"Ġfeelings":7545,"Ġvisitors":7546,"Ġabsence":7547,"Ġnormally":7548,"Ġhundreds":7549,"Ġpupils":7550,"ĠSpecial":7551,"Ġlegislation":7552,"Ġdeployed":7553,"Ġarrested":7554,"Ġdialogue":7555,"Ġproposal":7556,"ĠGrammy":7557,"Ġrhythm":7558,"Ġmunicipal":7559,"ĠCathedral":7560,"ĠColorado":7561,"ĠRaffles":7562,"ĠFurtado":7563,"after":7564,"eke":7565,"math":7566,"organ":7567,"isms":7568,"esse":7569,"Ġbone":7570,"Ġbrick":7571,"Ġpure":7572,"Ġdim":7573,"Ġdens":7574,"Ġdiet":7575,"Ġet":7576,"ĠCab":7577,"urday":7578,"ĠMel":7579,"iders":7580,"Ġstable":7581,"otic":7582,"ĠPA":7583,"ĠDark":7584,"ĠGib":7585,"agu":7586,"Ġdeem":7587,"ĠUsta":7588,"Ġreconna":7589,"ĠAlong":7590,"Ġmanuscript":7591,"ĠReal":7592,"Ġfeed":7593,"Ġ93":7594,"Ġprerogative":7595,"Ġforming":7596,"Ġamino":7597,"Ġsurpr":7598,"Ġ166":7599,"ĠSholay":7600,"Ġinfrast":7601,"ullen":7602,"ĠTechn":7603,"Ġextent":7604,"Ġclassic":7605,"Ġtrading":7606,"Ġskull":7607,"Ã¡r":7608,"Ġhyp":7609,"Ġbiographer":7610,"Ġpoorly":7611,"Ġstationed":7612,"ĠImperial":7613,"Ġdisplays":7614,"ĠPrior":7615,"Ġensure":7616,"Ġmoments":7617,"Ġoption":7618,"Ġinternal":7619,"Ġdrums":7620,"ĠKrak":7621,"Ġinterpret":7622,"ĠSaturday":7623,"ĠDominican":7624,"ĠNHL":7625,"Ġsubmarine":7626,"Ġresearchers":7627,"Ġreconstruction":7628,"Ġconvection":7629,"ĠFernand":7630,"Ġmuscaria":7631,"ĠUstaÅ¡":7632,"Ġreconnaissance":7633,"eper":7634,"ias":7635,"vention":7636,"Ġsunk":7637,"Ġswe":7638,"Ġsaves":7639,"Ġwings":7640,"Ġcreek":7641,"Ġbat":7642,"Ġblow":7643,"ĠTig":7644,"ĠTreat":7645,"ĠSher":7646,"state":7647,"Ġlose":7648,"Ġlists":7649,"ĠCape":7650,"ĠBed":7651,"Ġstreets":7652,"ĠHou":7653,"ĠHob":7654,"ĠFree":7655,"ĠDur":7656,"eman":7657,"Ġorbit":7658,"ĠKit":7659,"Ġintense":7660,"Ġ89":7661,"ĠMarg":7662,"Ġverte":7663,"Ġappropri":7664,"Ġ05":7665,"Ġentitled":7666,"Ġtransition":7667,"Ġuseful":7668,"ĠBlood":7669,"Ġmodified":7670,"Ġannually":7671,"Ġdriven":7672,"Ġextension":7673,"Ġconstruct":7674,"Ġinfluential":7675,"encies":7676,"Ġposted":7677,"ĠMaggie":7678,"ĠRecord":7679,"ĠMexican":7680,"ĠMedia":7681,"Ġinjuries":7682,"Ġwithdrew":7683,"Ġmemory":7684,"Ġcruiser":7685,"ĠFIFA":7686,"Ġunderstanding":7687,"Ġdramatic":7688,"Ġpurposes":7689,"iques":7690,"Ġdynasty":7691,"ĠDAG":7692,"Ġoverwhel":7693,"CA":7694,"ds":7695,"rine":7696,"sch":7697,"vements":7698,"vati":7699,"Åį":7700,"Ġtight":7701,"Ġtank":7702,"Ġtests":7703,"inet":7704,"onomy":7705,"real":7706,"rell":7707,"Ġsaved":7708,"aten":7709,"ora":7710,"oral":7711,"Ġchess":7712,"icop":7713,"Ġdinosaur":7714,"Ġhang":7715,"lete":7716,"Ġrepr":7717,"Ġloy":7718,"ĠCult":7719,"ĠMah":7720,"ĠBron":7721,"ĠHud":7722,"ĠHok":7723,"ĠHind":7724,"ĠFront":7725,"Ġcong":7726,"uls":7727,"ĠNichol":7728,"ĠJenn":7729,"Ġrated":7730,"Ġrates":7731,"Ġridge":7732,"rif":7733,"Ġvac":7734,"Ġorb":7735,"Ġchoir":7736,"Ġexcess":7737,"Ġplane":7738,"pty":7739,"ĠVII":7740,"Ġclock":7741,"Ġago":7742,"Ġotherwise":7743,"Ġspoke":7744,"Ġ63":7745,"mann":7746,"Ġ900":7747,"Ġwritings":7748,"Ġactual":7749,"Ġammun":7750,"Ġseverely":7751,"Ġoriginated":7752,"Ġshipping":7753,"Ġinstalled":7754,"Ġgenerated":7755,"Ġexposure":7756,"Ġhelicop":7757,"Ġrestrict":7758,"Ġ1928":7759,"Ġengines":7760,"Ġdemand":7761,"Ġsuggesting":7762,"Ġframe":7763,"ĠParvati":7764,"Ġfactors":7765,"Ġinterests":7766,"Ġwatching":7767,"Ġreaders":7768,"ĠTownship":7769,"restling":7770,"Ġcrosses":7771,"Ġburned":7772,"Ġinformed":7773,"Ġkingdom":7774,"Ġmaterials":7775,"ĠIsraeli":7776,"Ġsatisf":7777,"ĠNorway":7778,"Ġessential":7779,"Ġsubspecies":7780,"Ġapparently":7781,"Ġjournalist":7782,"Ġdoubt":7783,"ĠMassachus":7784,"Ġhappened":7785,"Ġpanel":7786,"Ġpicture":7787,"Ġcustom":7788,"Ġchairman":7789,"Ġjackrab":7790,"ĠEducation":7791,"ĠRÃ©union":7792,"Ġcircumstances":7793,"ĠBarker":7794,"Ġammunition":7795,"ĠMassachusetts":7796,"gency":7797,"mn":7798,"ni":7799,"rants":7800,"á»":7801,"Ġille":7802,"heera":7803,"Ġcart":7804,"Ġciting":7805,"Ġfestival":7806,"ĠTon":7807,"Ġready":7808,"ĠAld":7809,"ilst":7810,"ĠSports":7811,"ĠCec":7812,"acle":7813,"ĠHamp":7814,"ĠHaving":7815,"utz":7816,"ĠFound":7817,"ĠGary":7818,"ĠGwen":7819,"aga":7820,"ĠEaton":7821,"ĠInt":7822,"ateau":7823,"ables":7824,"ĠKann":7825,"oven":7826,"raham":7827,"Ġclimate":7828,"Ġrecur":7829,"Ġpartially":7830,"Ġdisaster":7831,"Ġearn":7832,"Ġrelie":7833,"Ġcancer":7834,"Ġmovements":7835,"Ġeleven":7836,"ĠBranch":7837,"Ġbelt":7838,"Ġoperate":7839,"Ġgenerals":7840,"Ġimpossible":7841,"Ġcarved":7842,"Ġlatex":7843,"ĠGuide":7844,"Ġlisten":7845,"urricanes":7846,"Ġ1927":7847,"Ġcauses":7848,"ĠPeters":7849,"Ġparish":7850,"ĠMinistry":7851,"Ġvictories":7852,"ĠXe":7853,"ĠFederal":7854,"ĠRichmond":7855,"Ġmixture":7856,"Ġsurvive":7857,"ĠCorpor":7858,"Ġburning":7859,"ĠWilson":7860,"Ġtransportation":7861,"ĠPortugal":7862,"Ġlayer":7863,"Ġbombard":7864,"Ġadministr":7865,"Ġshells":7866,"Ġinstruments":7867,"Ġstarlings":7868,"Ġbehavior":7869,"ĠHistoric":7870,"Ġdeparture":7871,"ĠRAAF":7872,"ĠSwedish":7873,"tavÄģda":7874,"Ġsubstantial":7875,"Ġoverseas":7876,"ĠPatty":7877,"Ġresistance":7878,"ekÄģntavÄģda":7879,"ĠUstaÅ¡e":7880,"ĠKannada":7881,"OK":7882,"life":7883,"pes":7884,"pent":7885,"yria":7886,"zac":7887,"Ê»":7888,"Ġsquadron":7889,"Ġwine":7890,"Ġdangerous":7891,"lets":7892,"iling":7893,"ĠSis":7894,"Ġlover":7895,"Ġliber":7896,"ĠCBS":7897,"Ġwasn":7898,"Ġbearing":7899,"urse":7900,"ĠMand":7901,"ĠMidge":7902,"ĠMasters":7903,"ĠMÃ¡r":7904,"ĠBall":7905,"ĠBaker":7906,"ĠBureau":7907,"ithic":7908,"ĠPass":7909,"ĠPict":7910,"chang":7911,"andoba":7912,"osl":7913,"osm":7914,"ĠElect":7915,"ĠEagle":7916,"Ġshut":7917,"aste":7918,"teenth":7919,"Ġunlike":7920,"Ġrooms":7921,"Ġabund":7922,"Ġresigned":7923,"ricted":7924,"Ġafterwards":7925,"Ġspores":7926,"ĠYug":7927,"Ġspend":7928,"Ġcommem":7929,"Ġconsc":7930,"Ġamateur":7931,"Ġsupporters":7932,"Ġinstance":7933,"Ġmusician":7934,"Ġmodels":7935,"Ġ1933":7936,"Ġrestored":7937,"Ġmarry":7938,"Ġlisting":7939,"Ġphr":7940,"quez":7941,"Ġtemples":7942,"Ġcompete":7943,"ĠSimpson":7944,"ĠPolice":7945,"Ġinteresting":7946,"Ġlooks":7947,"Ġtechniques":7948,"Ġelectronic":7949,"Ġ1860":7950,"Ġsequences":7951,"Ġengineers":7952,"Ġthinking":7953,"ĠKhandoba":7954,"Ġtribute":7955,"Ġloan":7956,"Ġpersu":7957,"Ġestablishing":7958,"Ġdocuments":7959,"forced":7960,"itzer":7961,"ĠVeronica":7962,"ĠHowe":7963,"rorist":7964,"ASA":7965,"Ġopportunities":7966,"Ġstruggle":7967,"Ġwindows":7968,"Ġpremiered":7969,"Ġbeautiful":7970,"ĠStewart":7971,"ĠYanke":7972,"ĠMÃ¡rquez":7973,"ĠYugosl":7974,"DH":7975,"Hg":7976,"MO":7977,"nal":7978,"pus":7979,"sp":7980,"uv":7981,"western":7982,"Ġtip":7983,"Ġsale":7984,"Ġfram":7985,"ĠinHg":7986,"Ġpale":7987,"Ġmode":7988,"roit":7989,"leph":7990,"ĠTam":7991,"entional":7992,"ĠAP":7993,"ĠSoon":7994,"omura":7995,"ĠThen":7996,"Ġgard":7997,"Ġforcing":7998,"ĠBath":7999,"otton":8000,"ĠRoc":8001,"ĠFRE":8002,"ĠWright":8003,"osis":8004,"ĠNad":8005,"ĠNiel":8006,"ĠLith":8007,"ĠLast":8008,"Ġheat":8009,"ĠJr":8010,"Ġprove":8011,"ĠâĤ":8012,"Ġnotably":8013,"iped":8014,"ishment":8015,"Ġunion":8016,"Ġrecru":8017,"ryce":8018,"Ġoutl":8019,"rene":8020,"Ġ68":8021,"Ġremember":8022,"Ġinteraction":8023,"Ġsubst":8024,"roscop":8025,"Ġminimum":8026,"Ġartwork":8027,"Ġartificial":8028,"ĠWho":8029,"Ġdesigns":8030,"Ġoffices":8031,"Ġ1957":8032,"Ġadvis":8033,"Ġadventure":8034,"Ġstorms":8035,"onto":8036,"Ġcriminal":8037,"Ġsituated":8038,"Ġelsewhere":8039,"Ġdivor":8040,"Ġpredomin":8041,"Ġrecognised":8042,"Ġachieve":8043,"ĠPhilip":8044,"Ġmerch":8045,"ĠToronto":8046,"Ġproperties":8047,"Ġmemorial":8048,"Ġcoins":8049,"Ġexperiences":8050,"ĠJustice":8051,"Ġweapon":8052,"ĠRobin":8053,"Ġspiritual":8054,"ĠMiller":8055,"Ġthousand":8056,"Ġneighbor":8057,"Ġvessel":8058,"ĠGirls":8059,"ĠJurchen":8060,"ĠPhoenix":8061,"ĠMulder":8062,"Ġretirement":8063,"ĠMozambique":8064,"ĠDetroit":8065,"LIMO":8066,"Ġacknowled":8067,"atechism":8068,"ĠFRELIMO":8069,"cru":8070,"iar":8071,"ÅĽ":8072,"áĥ":8073,"Ġáĥ":8074,"Ġtiss":8075,"Ġtanks":8076,"heme":8077,"Ġsons":8078,"orrow":8079,"Ġfountain":8080,"Ġmask":8081,"icide":8082,"ĠTs":8083,"Ġrect":8084,"ĠSb":8085,"ĠSans":8086,"omatic":8087,"ĠCob":8088,"ĠCelt":8089,"ĠIra":8090,"Ġgiant":8091,"ĠBell":8092,"ĠBang":8093,"ĠBenn":8094,"ĠPoint":8095,"ĠRest":8096,"ĠRaj":8097,"Ġconj":8098,"ĠNetwork":8099,"Ġselection":8100,"Ġvast":8101,"aka":8102,"Ġshop":8103,"ĠKim":8104,"ĠKansas":8105,"order":8106,"ears":8107,"Ġtrained":8108,"ĠVice":8109,"Ġresign":8110,"Ġagents":8111,"Ġattrib":8112,"Ġ67":8113,"ĠSee":8114,"ĠSeason":8115,"ĠDeath":8116,"Ġformat":8117,"Ġfounder":8118,"atherine":8119,"ĠScully":8120,"Ġobst":8121,"Ġdepicts":8122,"Ġinstru":8123,"Ġcounties":8124,"Ġcharacterized":8125,"ĠProg":8126,"pended":8127,"Ġengage":8128,"ĠManagement":8129,"Ġstarred":8130,"Ġformerly":8131,"Ġwestward":8132,"ĠMinor":8133,"ĠPerfect":8134,"Ġfrig":8135,"Ġstatistics":8136,"ĠBarry":8137,"Ġprogramme":8138,"Ġradiation":8139,"ĠKevin":8140,"Ġ1850":8141,"Ġfallen":8142,"Ġmeasured":8143,"Ġcosts":8144,"Ġburial":8145,"Ġcopy":8146,"Ġobjective":8147,"Ġnetworks":8148,"ĠMoore":8149,"ĠRussia":8150,"Ġcleared":8151,"Ġcheck":8152,"Ġbiggest":8153,"Ġdepending":8154,"Ġphotograph":8155,"Ġinstitution":8156,"Ġvehicle":8157,"Ġremarked":8158,"Ġexcavation":8159,"Ġholiday":8160,"ĠJourney":8161,"ĠAlbums":8162,"Ġdelayed":8163,"ĠColeman":8164,"umption":8165,"ĠBulls":8166,"ĠGilbert":8167,"ĠWiÅĽ":8168,"owiecki":8169,"Ġconvinced":8170,"Ġpsych":8171,"Ġinfrastructure":8172,"ĠHudson":8173,"niowiecki":8174,"ĠWiÅĽniowiecki":8175,"hist":8176,"mel":8177,"nce":8178,"oe":8179,"uable":8180,"Äĩ":8181,"heim":8182,"hered":8183,"eratops":8184,"Ġsed":8185,"Ġmamm":8186,"Ġdream":8187,"Ġhorn":8188,"ĠSid":8189,"ĠSuch":8190,"ĠBudd":8191,"Ġstyles":8192,"otal":8193,"ĠGate":8194,"Ġrum":8195,"Ġrivers":8196,"ategy":8197,"akota":8198,"ĠStories":8199,"Ġcompound":8200,"ruz":8201,"assador":8202,"Ġresidence":8203,"Ġplayoff":8204,"Ġimpl":8205,"amps":8206,"ĠAnzac":8207,"oyage":8208,"ĠArsenal":8209,"Ġ84":8210,"Ġ86":8211,"Ġconservation":8212,"Ġformal":8213,"Ġdecides":8214,"Ġdescribe":8215,"ĠWarren":8216,"Ġinscription":8217,"Ġhelmet":8218,"Ġ140":8219,"Ġrestoration":8220,"ĠCanal":8221,"Ġdifferences":8222,"ĠGray":8223,"ĠRoth":8224,"Ġ1926":8225,"Ġopponent":8226,"Ġcrake":8227,"Ġclaiming":8228,"Ġskills":8229,"ĠMagdal":8230,"Ġpredators":8231,"Ġaudiences":8232,"Ġclosest":8233,"criptions":8234,"Ġdetermine":8235,"Ġclearly":8236,"Ġhousing":8237,"Ġrailroad":8238,"ĠRepublican":8239,"Ġdisplayed":8240,"ĠOscar":8241,"avalry":8242,"Ġvote":8243,"ĠMrs":8244,"ĠTrek":8245,"Ġsafe":8246,"ĠOriginally":8247,"Ġranging":8248,"Ġhunting":8249,"ĠSilver":8250,"ĠNevertheless":8251,"ĠMemorial":8252,"Ġreservoir":8253,"Ġreinforcements":8254,"Ġbenefit":8255,"Ġcrops":8256,"ĠPersian":8257,"Ġpredecessor":8258,"ĠInitially":8259,"ĠTerritory":8260,"Ġcitizens":8261,"ĠOrganization":8262,"Ġfeathers":8263,"ĠHokies":8264,"Mal":8265,"boy":8266,"ef":8267,"lie":8268,"piece":8269,"rates":8270,"rating":8271,"tic":8272,"wald":8273,"onia":8274,"rees":8275,"Ġsung":8276,"itt":8277,"Ġtoll":8278,"icate":8279,"Ġdipl":8280,"leged":8281,"ĠAz":8282,"oming":8283,"ĠCategory":8284,"ĠISB":8285,"ĠRain":8286,"Ġalleged":8287,"ĠDiv":8288,"aints":8289,"Ġprol":8290,"iform":8291,"abil":8292,"ĠChagas":8293,"ĠValk":8294,"Ġadm":8295,"Ġteen":8296,"Ġattained":8297,"ĠUntil":8298,"ĠComb":8299,"Ġregiment":8300,"Ġcooper":8301,"Ġthereafter":8302,"Ġgrown":8303,"Ġelections":8304,"Ġenth":8305,"rosaur":8306,"Ġteamm":8307,"Ġinstall":8308,"yline":8309,"Ġanyone":8310,"Ġcargo":8311,"ĠBeh":8312,"Ġpromised":8313,"Ġrestricted":8314,"Ġchildhood":8315,"Ġpossess":8316,"Ġarrive":8317,"Ġslide":8318,"Ġcommandment":8319,"iveness":8320,"Ġtemporary":8321,"ĠAbby":8322,"shore":8323,"Ġrepresentative":8324,"Ġ1905":8325,"sequently":8326,"Ġannounce":8327,"Ġgrounds":8328,"Ġfuner":8329,"Ġranking":8330,"ucky":8331,"Ġerr":8332,"Ġargues":8333,"ĠRocky":8334,"Ġdefending":8335,"Ġruling":8336,"Ġperspective":8337,"ĠTurks":8338,"Ġadaptation":8339,"Ġdegrees":8340,"ĠVictorian":8341,"Ġbadly":8342,"Ġmagnitude":8343,"Ġscientists":8344,"ĠConfeder":8345,"ĠCommunist":8346,"Ġranges":8347,"Ġpreparation":8348,"Ġthrone":8349,"ĠChapel":8350,"Ġtunnel":8351,"ĠJonathan":8352,"Ġprompted":8353,"ĠLeslie":8354,"ĠLegacy":8355,"Ġexclusively":8356,"ĠMathews":8357,"Ġastronom":8358,"Ġmoderate":8359,"Ġimprison":8360,"ĠKelly":8361,"ĠExpress":8362,"ĠProtestant":8363,"Malley":8364,"ĠISBN":8365,"ĠValkyria":8366,"AT":8367,"CC":8368,"DS":8369,"EFA":8370,"aun":8371,"burn":8372,"fess":8373,"put":8374,"yer":8375,"inery":8376,"Ġtheater":8377,"rec":8378,"Ġsad":8379,"Ġster":8380,"Ġsisters":8381,"Ġcake":8382,"Ġcaves":8383,"Ġbed":8384,"Ġbones":8385,"inger":8386,"Ġmoon":8387,"icit":8388,"icia":8389,"Ġdwar":8390,"Ġhuge":8391,"ĠSle":8392,"Ġeasy":8393,"Ġnav":8394,"Ġnurse":8395,"eline":8396,"adheera":8397,"Ġbear":8398,"Ġgates":8399,"ola":8400,"olen":8401,"owa":8402,"ĠHope":8403,"uses":8404,"ĠDave":8405,"ĠDyn":8406,"ĠGun":8407,"ĠLover":8408,"Ġdeity":8409,"Ġdeleg":8410,"Ġexists":8411,"ĠâĢľ":8412,"ĠUEFA":8413,"ĠStal":8414,"ishn":8415,"ĠVul":8416,"Ġclim":8417,"Ġresumed":8418,"Ġ58":8419,"Ġdesert":8420,"Ġmanga":8421,"Ġenh":8422,"Ġoutbreak":8423,"ternal":8424,"Ġ78":8425,"ĠAsh":8426,"Ġrelation":8427,"Ġconsol":8428,"Ġcharged":8429,"Ġprime":8430,"Ġ08":8431,"Ġdecay":8432,"Ġpoison":8433,"ĠShow":8434,"Ġ178":8435,"Ġreprodu":8436,"Ġnorthward":8437,"ĠPlat":8438,"ĠAllen":8439,"ĠProfess":8440,"Ġexplains":8441,"gery":8442,"Ġhandled":8443,"ĠMcL":8444,"Ġmyst":8445,"Ġeveryone":8446,"Ġtwin":8447,"braska":8448,"alymp":8449,"Ġbands":8450,"ĠParalymp":8451,"ĠEvent":8452,"ĠNebraska":8453,"Ġsky":8454,"ĠMagadheera":8455,"Ġsteam":8456,"Ġengineer":8457,"Ġinjured":8458,"Ġamounts":8459,"Ġcolonies":8460,"rupted":8461,"Ġboundary":8462,"Ġcelebrated":8463,"ĠWaterfall":8464,"Ġarchitecture":8465,"ĠOutstanding":8466,"Ġcorner":8467,"Ġadvertising":8468,"ĠCheval":8469,"ĠDemocratic":8470,"Ġutil":8471,"Ġrifle":8472,"ĠBrooks":8473,"Ġbulk":8474,"Ġstrengthened":8475,"Ġinhabitants":8476,"Ġerected":8477,"ĠBertin":8478,"Ġethnic":8479,"Ġdeemed":8480,"ĠTreaty":8481,"ĠIraq":8482,"Ġdwarf":8483,"SA":8484,"gov":8485,"kh":8486,"night":8487,"ris":8488,"Ġtack":8489,"Ġturb":8490,"Ġaw":8491,"Ġwet":8492,"Ġcars":8493,"Ġfate":8494,"Ġfant":8495,"Ġbell":8496,"Ġbind":8497,"Ġbanned":8498,"Ġinse":8499,"Ġdraf":8500,"ĠTro":8501,"Ġrever":8502,"Ġlake":8503,"omtav":8504,"ĠCatechism":8505,"urrent":8506,"ĠMuch":8507,"Ġgarrison":8508,"ĠHor":8509,"ĠPryce":8510,"ĠRem":8511,"emies":8512,"osom":8513,"ĠNash":8514,"Ġanth":8515,"ĠLang":8516,"Ġrib":8517,"ifies":8518,"illed":8519,"apse":8520,"uez":8521,"okovic":8522,"ĠHeaven":8523,"ĠThus":8524,"Ġscattered":8525,"Ġpartner":8526,"Ġtexts":8527,"weight":8528,"ĠUnivers":8529,"ĠAsomtav":8530,"ĠArk":8531,"Ġcanc":8532,"Ġrecordings":8533,"Ġproductions":8534,"Ġsubstitute":8535,"rophy":8536,"Ġenters":8537,"Ġ165":8538,"Ġmonuments":8539,"Ġ113":8540,"Ġexposed":8541,"Ġlandings":8542,"Ġdesigner":8543,"Ġwarning":8544,"Ġinscriptions":8545,"ĠBeet":8546,"Ġstrategy":8547,"ĠHerze":8548,"rows":8549,"Ġdriver":8550,"ĠTracy":8551,"Ġdifference":8552,"plete":8553,"Ġ1924":8554,"Ġ1925":8555,"Ġbreed":8556,"Ġdemands":8557,"Ġprofile":8558,"ĠDavis":8559,"Ġpriest":8560,"Ġsteep":8561,"Ġcondem":8562,"apping":8563,"Ġsupern":8564,"Ġfundament":8565,"ĠHarold":8566,"ĠMadrid":8567,"ĠBusiness":8568,"Ġexecuted":8569,"ĠEmmy":8570,"Ġprevented":8571,"Ġdominant":8572,"Ġsettlements":8573,"Ġuncertain":8574,"ĠDjokovic":8575,"Ġjudge":8576,"ASP":8577,"Ġpursue":8578,"Ġgraphics":8579,"Ġdemonstrated":8580,"Ġexcavations":8581,"Ġdistinctive":8582,"Ġturrets":8583,"iggs":8584,"otype":8585,"Ġtactics":8586,"ĠRailway":8587,"Ġapplication":8588,"Ġdistinguished":8589,"ĠRifles":8590,"eorological":8591,"ĠYankees":8592,"ĠNielsen":8593,"govina":8594,"ĠAsomtavruli":8595,"ĠHerzegovina":8596,"AC":8597,"EC":8598,"ij":8599,"mouth":8600,"noon":8601,"rus":8602,"uen":8603,"Ġtenth":8604,"Ġaster":8605,"inian":8606,"Ġpine":8607,"Ġpounds":8608,"Ġmbar":8609,"Ġrevers":8610,"oux":8611,"ilation":8612,"Ġforty":8613,"oli":8614,"ĠBible":8615,"imal":8616,"Ġstood":8617,"otten":8618,"ĠWomen":8619,"ĠNL":8620,"ĠLower":8621,"avel":8622,"rior":8623,"Ġcomed":8624,"ifer":8625,"Ġsure":8626,"arte":8627,"udes":8628,"ĠKong":8629,"Ġtrust":8630,"ĠVe":8631,"ĠVeer":8632,"ignment":8633,"Ġusage":8634,"ĠThose":8635,"Ġscheme":8636,"Ġafternoon":8637,"Ġoffs":8638,"Ġcenters":8639,"Ġfee":8640,"Ġfeels":8641,"Ġconsult":8642,"Ġcharity":8643,"ĠDean":8644,"Ġreleases":8645,"Ġassisted":8646,"ĠShel":8647,"fully":8648,"Ġsmooth":8649,"Ġdowntown":8650,"azines":8651,"Ġconsidering":8652,"Ġedges":8653,"Ġ1934":8654,"ĠClin":8655,"Ġdrain":8656,"Ġportrait":8657,"Ġapproval":8658,"Ġtriple":8659,"ĠMcG":8660,"Ġinitiated":8661,"Ġamongst":8662,"Ġmagazines":8663,"Ġfrust":8664,"Ġsounds":8665,"ĠGlob":8666,"ĠAnglo":8667,"Ġliked":8668,"ĠBerlin":8669,"ĠJews":8670,"ĠMadison":8671,"Ġdefenders":8672,"ĠCongo":8673,"Ġsubjects":8674,"Ġarchaeologist":8675,"Ġindicating":8676,"Ġceratops":8677,"Ġsatell":8678,"ĠOverall":8679,"Ġtournaments":8680,"Ġemergency":8681,"Ġinnov":8682,"Ġsuspended":8683,"ĠTennesse":8684,"Ġboxing":8685,"Ġtranslation":8686,"Ġsucceed":8687,"ĠOriginal":8688,"ĠIndependence":8689,"Ġsacred":8690,"Ġduty":8691,"ĠGallery":8692,"Ġcollaboration":8693,"Ġaltered":8694,"Ġpremiere":8695,"Ġstriking":8696,"Ġphilosophy":8697,"chell":8698,"ĠAlfred":8699,"ĠMurray":8700,"Ġresidential":8701,"Ġelder":8702,"borne":8703,"Ġfalse":8704,"Ġmartial":8705,"ĠHouston":8706,"Ġcongreg":8707,"ĠCorporation":8708,"Ġcommemor":8709,"ĠCeltic":8710,"Ġasteroid":8711,"ĠTennessee":8712,"cake":8713,"ois":8714,"pic":8715,"Ġtale":8716,"Ġcous":8717,"Ġfert":8718,"Ġbod":8719,"Ġbishop":8720,"Ġtoured":8721,"ĠAman":8722,"ĠAuth":8723,"ilty":8724,"ĠSAS":8725,"Ġlam":8726,"Ġnations":8727,"amount":8728,"ĠMach":8729,"ĠBat":8730,"ote":8731,"utor":8732,"Ġconclusion":8733,"ĠWag":8734,"ĠNaval":8735,"ĠNDH":8736,"agine":8737,"ĠEsh":8738,"Ġchamber":8739,"sex":8740,"ĠKen":8741,"ĠKurt":8742,"ellar":8743,"Ġroots":8744,"oko":8745,"ffield":8746,"ĠOntar":8747,"Ġ92":8748,"ĠMariana":8749,"Ġflash":8750,"ologies":8751,"Ġ09":8752,"Ġ101":8753,"ĠSheffield":8754,"Ġobl":8755,"Ġpoll":8756,"Ġreceives":8757,"Ġimpressed":8758,"ĠFran":8759,"ervative":8760,"Ġvariation":8761,"Ġguilty":8762,"ĠGrade":8763,"Ġexplo":8764,"Ġcolleagues":8765,"Ġ1000":8766,"Ġcrisis":8767,"Ġrealized":8768,"Ġcommunication":8769,"Ġdeliber":8770,"ĠRomanian":8771,"Ġordering":8772,"Ġnortheastern":8773,"ĠXenon":8774,"encing":8775,"Ġ1908":8776,"ĠNext":8777,"Ġbattlecru":8778,"Ġreducing":8779,"Ġfifty":8780,"ĠSwiss":8781,"Ġrespective":8782,"Ġreveal":8783,"Ġcrews":8784,"Ġrebuilt":8785,"Ġ1870":8786,"Ġviolent":8787,"Ġquarterback":8788,"ĠImagine":8789,"Ġoccupation":8790,"Ġtesting":8791,"ĠAgain":8792,"ĠPriest":8793,"Ġfrequent":8794,"Ġadopt":8795,"ĠFinals":8796,"ĠMountains":8797,"ĠBelg":8798,"Ġschedule":8799,"Ġrequested":8800,"Ġtalking":8801,"ĠHawaii":8802,"Ġmanufactur":8803,"ĠConservation":8804,"Ġdefinition":8805,"Ġdelivery":8806,"ĠGiants":8807,"Ġfatal":8808,"ĠVillage":8809,"Ġeliminated":8810,"ĠCubs":8811,"burgh":8812,"ĠRelease":8813,"Ġsimultaneously":8814,"ĠWicca":8815,"ĠChevaliers":8816,"ĠWagner":8817,"ĠEshmun":8818,"ĠOntario":8819,"ait":8820,"don":8821,"gars":8822,"jamin":8823,"oes":8824,"tah":8825,"yo":8826,"Ã§":8827,"nda":8828,"Ġcup":8829,"Ġpull":8830,"rog":8831,"ĠAce":8832,"ĠABC":8833,"Ġnet":8834,"Ġnurs":8835,"ĠCP":8836,"ellect":8837,"adier":8838,"ĠMant":8839,"Ġgets":8840,"ĠBah":8841,"Ġstrict":8842,"ĠHarrison":8843,"ĠPle":8844,"ĠRhys":8845,"ĠDig":8846,"ĠDog":8847,"ĠDakota":8848,"ĠNS":8849,"ĠGhost":8850,"aganda":8851,"Ġsend":8852,"ĠOreg":8853,"ĠOmar":8854,"Ġvul":8855,"oples":8856,"Ġyield":8857,"ĠStav":8858,"Ġtrick":8859,"Ġcomponents":8860,"Ġintellect":8861,"Ġclin":8862,"Ġupset":8863,"Ġspur":8864,"ĠAnne":8865,"ĠAsian":8866,"Ġpeaking":8867,"ĠLeigh":8868,"Ġ02":8869,"Ġ123":8870,"Ġ155":8871,"Ġobvious":8872,"Ġrunners":8873,"Ġoperates":8874,"rapped":8875,"Ġimpression":8876,"Ġcarri":8877,"Ġmathem":8878,"ĠCarre":8879,"Ġmetre":8880,"ĠChristine":8881,"Ġhelium":8882,"Ġvisiting":8883,"Ġrefuge":8884,"Ġ1923":8885,"Ġorganised":8886,"Ġsentences":8887,"ĠPeach":8888,"Ġshoulder":8889,"ĠEvans":8890,"aski":8891,"Ġfifteen":8892,"Ġasks":8893,"Ġrounds":8894,"Ġemployees":8895,"ĠHills":8896,"Ġpotentially":8897,"Ġjobs":8898,"Ġnewspapers":8899,"Ġkilome":8900,"ĠBenjamin":8901,"ĠHawaiian":8902,"Ġrhyme":8903,"Ġwithdrawal":8904,"Ġmechanical":8905,"Ġvenues":8906,"Ġinterpre":8907,"Ġmolecules":8908,"Ġassassination":8909,"ĠCaes":8910,"ĠAncient":8911,"ĠPulaski":8912,"ĠQueensland":8913,"ĠLabour":8914,"Ġcollapsed":8915,"Ġculmin":8916,"Ġelaborate":8917,"ĠEventually":8918,"ĠOregon":8919,"Pa":8920,"ba":8921,"xual":8922,"ÅĤ":8923,"Ġsang":8924,"Ġori":8925,"Ġwel":8926,"atropical":8927,"Ġdies":8928,"ĠSS":8929,"ĠSn":8930,"ĠSem":8931,"ĠSand":8932,"ĠCase":8933,"ĠCany":8934,"eless":8935,"ĠMit":8936,"Ġgust":8937,"oln":8938,"ĠBanks":8939,"Ġstores":8940,"uty":8941,"Ġisot":8942,"ĠPow":8943,"ĠPrest":8944,"ĠRace":8945,"ĠWing":8946,"ĠNar":8947,"ĠNob":8948,"ĠLinc":8949,"agod":8950,"umin":8951,"Ġride":8952,"ĠEric":8953,"Ġvice":8954,"Ġsuitable":8955,"illiant":8956,"apore":8957,"aku":8958,"acked":8959,"iney":8960,"ĠCharts":8961,"raia":8962,"Ġcontribution":8963,"ogy":8964,"Ġclust":8965,"Ġabol":8966,"angular":8967,"ĠSection":8968,"Ġearning":8969,"Ġremove":8970,"Ġacids":8971,"obile":8972,"ohl":8973,"Ġsurgery":8974,"Ġ163":8975,"ieties":8976,"ernon":8977,"Ġartistic":8978,"Ġexpression":8979,"Ġconstant":8980,"Ġadvancing":8981,"Ġdams":8982,"ĠPlan":8983,"ĠCommons":8984,"ĠUSS":8985,"ĠChristopher":8986,"Ġdirectors":8987,"Ġclassification":8988,"ĠTrust":8989,"Ġconflic":8990,"Ġkills":8991,"Ġsentiment":8992,"Ġpersonality":8993,"ĠWeb":8994,"Ġreferring":8995,"Ġparas":8996,"Ġparody":8997,"Ġtrouble":8998,"Ġfactory":8999,"Ġstructural":9000,"Ġputting":9001,"Ġsumm":9002,"ĠCorb":9003,"ucks":9004,"Ġvalid":9005,"ĠSupreme":9006,"Ġcreative":9007,"Ġasking":9008,"Ġrenov":9009,"atinum":9010,"Ġmachines":9011,"Ġdiagn":9012,"Ġ1830":9013,"ĠValve":9014,"ĠSingapore":9015,"Ġdrove":9016,"Ġspacecraft":9017,"Ġdispute":9018,"ĠWoodhouse":9019,"Ġcompliment":9020,"Ġboundaries":9021,"Ġdocumented":9022,"Ġtranslated":9023,"Ġinhab":9024,"Ġextratropical":9025,"Ġyoungest":9026,"ĠKorea":9027,"Ġseeking":9028,"ĠChildren":9029,"Ġenvironmental":9030,"Ġcomparison":9031,"ĠSorraia":9032,"Ġcolumns":9033,"Ġtheatrical":9034,"ĠIslamic":9035,"ĠSimilarly":9036,"Ã¶n":9037,"imetres":9038,"ekend":9039,"ĠFoundation":9040,"ĠSisler":9041,"ĠProgram":9042,"ĠCanyon":9043,"ĠLincoln":9044,"Grom":9045,"IA":9046,"NC":9047,"NL":9048,"dney":9049,"krit":9050,"mont":9051,"oard":9052,"Ã¸":9053,"Ġsample":9054,"unes":9055,"Ġcave":9056,"Ġfishing":9057,"enic":9058,"Ġinclusion":9059,"inge":9060,"ashed":9061,"Ġtopped":9062,"Ġhull":9063,"ĠTogether":9064,"ĠSant":9065,"Ġlat":9066,"Ġlies":9067,"Ġlibrary":9068,"ĠCred":9069,"ĠCress":9070,"ĠCullen":9071,"acruz":9072,"Ġbeam":9073,"ĠBad":9074,"ĠBab":9075,"ĠBidd":9076,"ĠHans":9077,"etime":9078,"ĠPf":9079,"ĠPubl":9080,"Ġalt":9081,"ĠFace":9082,"ĠDD":9083,"ĠDie":9084,"ĠWhere":9085,"ĠWASP":9086,"ĠNear":9087,"ĠNatural":9088,"ĠNett":9089,"ĠanekÄģntavÄģda":9090,"ĠLud":9091,"ĠLost":9092,"ĠJard":9093,"ĠJason":9094,"Ġrising":9095,"odore":9096,"Ġplus":9097,"Ġkit":9098,"ĠKnow":9099,"Ġnotice":9100,"ĠChampions":9101,"Ġdisagre":9102,"Ġenzy":9103,"Ġspending":9104,"ugu":9105,"inder":9106,"Ġproduces":9107,"Ġprint":9108,"Ġsubmitted":9109,"Ġgray":9110,"Ġcoff":9111,"enden":9112,"ĠBriggs":9113,"Ġcompleting":9114,"Ġbridges":9115,"ĠConc":9116,"ennium":9117,"byter":9118,"Ġreflected":9119,"Ġtrials":9120,"Ġexplain":9121,"Ġorganisation":9122,"Ġpersonally":9123,"porarily":9124,"Ġexpert":9125,"Ġbases":9126,"Ġanthem":9127,"Ġtemporarily":9128,"Ġtwent":9129,"Ġcommunications":9130,"Ġsolar":9131,"Ġrepresentation":9132,"Ġprogramming":9133,"Ġ1907":9134,"Ġrevised":9135,"Ġprofessor":9136,"Ġswim":9137,"Ġsuperv":9138,"Ġfalls":9139,"Ġarmament":9140,"ĠSym":9141,"Ġcollapse":9142,"ĠCooper":9143,"Ġhonour":9144,"Ġremoval":9145,"Ġarchaeology":9146,"ĠVeracruz":9147,"Ġquestions":9148,"ĠPrix":9149,"ĠPrize":9150,"Ġbirthday":9151,"Ġsemif":9152,"Ġfavorable":9153,"Ġprepare":9154,"Ġ766":9155,"Ġpowered":9156,"Ġsculptures":9157,"ĠLouisiana":9158,"ĠSpecies":9159,"Ġbattleships":9160,"ĠFurthermore":9161,"ĠObser":9162,"Ġvertical":9163,"Ġencountered":9164,"Ġsegment":9165,"ĠIngres":9166,"ĠChronicles":9167,"ĠTelugu":9168,"ĠSanskrit":9169,"Ġsatellite":9170,"ĠBelgium":9171,"ĠCresswell":9172,"ĠBiddenden":9173,"ĠNettles":9174,"ĠJardine":9175,"eign":9176,"gets":9177,"ract":9178,"ta":9179,"Ġï":9180,"Ġump":9181,"Ġsailed":9182,"Ġwives":9183,"Ġwishes":9184,"Ġchest":9185,"itively":9186,"Ġfoss":9187,"Ġfitted":9188,"Ġbom":9189,"Ġbarr":9190,"Ġphen":9191,"Ġhidden":9192,"ĠTok":9193,"ĠSony":9194,"elle":9195,"urally":9196,"ĠMir":9197,"ĠBald":9198,"irates":9199,"ĠDers":9200,"ĠDud":9201,"ulu":9202,"Ġhem":9203,"agogue":9204,"ĠJun":9205,"ewise":9206,"Ġshares":9207,"ĠâĢĿ":9208,"Ġtru":9209,"ĠChron":9210,"Ġuniform":9211,"ieth":9212,"ansfield":9213,"Ġjunior":9214,"overeign":9215,"Ġupgraded":9216,"ĠYo":9217,"ĠYouth":9218,"Ġprefect":9219,"Ġpretty":9220,"Ġevident":9221,"enses":9222,"Ġmeters":9223,"Ġcanal":9224,"Ġpublishing":9225,"Ġindeed":9226,"Ġ03":9227,"Ġsurge":9228,"phoon":9229,"Ġmainland":9230,"Ġorigins":9231,"erto":9232,"Ġgenera":9233,"Ġrepair":9234,"Ġweekly":9235,"minster":9236,"Ġarriving":9237,"Ġ1922":9238,"Ġslip":9239,"Ġtraded":9240,"vesinje":9241,"Ġjoining":9242,"ĠWestminster":9243,"ĠXII":9244,"incial":9245,"Ġcharted":9246,"ĠNevesinje":9247,"ĠRegister":9248,"Ġconvention":9249,"ĠMagn":9250,"Ġhighways":9251,"Ġarmored":9252,"Ġbiological":9253,"Ġnominations":9254,"Ġdiscussion":9255,"Ġobjectives":9256,"ĠSocial":9257,"Ġkeeping":9258,"Ġcoinc":9259,"ĠAnti":9260,"Ġinvestigation":9261,"Ġboys":9262,"Ġstruggled":9263,"ĠErnest":9264,"Ġpleasure":9265,"Ġemphasis":9266,"Ġneutral":9267,"Ġbeliefs":9268,"ĠMichel":9269,"Ġpulled":9270,"Ġaccomplish":9271,"Ġchoose":9272,"Ġassembled":9273,"Ġupdated":9274,"ĠJacob":9275,"ĠCampbell":9276,"Ġdemolished":9277,"ĠARVN":9278,"Ġempire":9279,"ĠSioux":9280,"Ġunderwent":9281,"howitz":9282,"Ġillegal":9283,"ĠPattycake":9284,"Ġphrase":9285,"ĠBennett":9286,"ĠClinton":9287,"ĠAmanita":9288,"ĠDigital":9289,"ĠDershowitz":9290,"ĠDudley":9291,"ĠChrono":9292,"SP":9293,"bles":9294,"nels":9295,"rich":9296,"tropical":9297,"Ġax":9298,"inations":9299,"orable":9300,"Ġcateg":9301,"Ġfusion":9302,"Ġfasc":9303,"Ġbare":9304,"Ġpion":9305,"Ġpace":9306,"Ġpages":9307,"Ġdict":9308,"ĠTony":9309,"Ġthrew":9310,"Ġlanes":9311,"ĠCater":9312,"acre":9313,"acles":9314,"Ġbeings":9315,"ĠIan":9316,"ivated":9317,"olithic":9318,"ĠBor":9319,"ĠBuilding":9320,"otte":9321,"ĠPohl":9322,"Ġwhilst":9323,"Ġalph":9324,"ĠWander":9325,"ĠLet":9326,"ersed":9327,"Ġsect":9328,"Ġsuit":9329,"Ġchrom":9330,"Ġexport":9331,"Ġshift":9332,"Ġshorter":9333,"ĠUnd":9334,"Ġunlik":9335,"Ġunnamed":9336,"Ġrotation":9337,"Ġclay":9338,"Ġabilities":9339,"Ġresolution":9340,"ĠAlb":9341,"Ġdisband":9342,"Ġfinale":9343,"Ġfeeding":9344,"Ġpeoples":9345,"Ġassess":9346,"Ġquant":9347,"Ġ170":9348,"ĠIndones":9349,"ĠZanz":9350,"Ġwarn":9351,"Ġcarries":9352,"aho":9353,"Ġadvice":9354,"ĠEurop":9355,"Ġpublications":9356,"ĠCanning":9357,"Ġmargin":9358,"Ġeventual":9359,"Ġpresentation":9360,"ĠWeir":9361,"Ġstarring":9362,"ĠWithout":9363,"brace":9364,"ĠCountry":9365,"Ġprofit":9366,"ĠParks":9367,"ĠJackets":9368,"Ġtourist":9369,"ĠMagic":9370,"Ġfacility":9371,"Ġreduction":9372,"ĠKeith":9373,"Ġstrip":9374,"ĠSwitzer":9375,"Ġelectron":9376,"Ġ1861":9377,"Ġmerely":9378,"Ġ360":9379,"Ġcertainly":9380,"Ġdaughters":9381,"Ġpercentage":9382,"Ġcontroller":9383,"Ġrecovery":9384,"Ġarchitectural":9385,"ĠCharlotte":9386,"ĠColumbus":9387,"Ġneighb":9388,"Ġsoutheastern":9389,"Ġpunishment":9390,"ĠDefense":9391,"Ġillustrated":9392,"Ġmeasurements":9393,"Ġadvertis":9394,"ĠArgentine":9395,"Ġaggreg":9396,"ĠUsher":9397,"ĠSweden":9398,"Ġconversation":9399,"Ġreforms":9400,"ĠIdaho":9401,"ĠKirk":9402,"Ġnegotiations":9403,"Ġsurrender":9404,"Ġcinema":9405,"ĠAbbey":9406,"Ġappointment":9407,"ĠWWF":9408,"Ġibis":9409,"ropolitan":9410,"ĠâĤ¹":9411,"Ġneighborhood":9412,"Ġenthus":9413,"ĠCaesar":9414,"ĠMitchell":9415,"ĠPreston":9416,"ĠWanderers":9417,"Ġunlikely":9418,"ĠZanzib":9419,"ĠSwitzerland":9420,"Tube":9421,"aired":9422,"father":9423,"hang":9424,"uart":9425,"vant":9426,"yram":9427,"Ġtub":9428,"Ġtelling":9429,"inction":9430,"inÃ¡":9431,"Ġsq":9432,"atically":9433,"Ġcotton":9434,"arant":9435,"Ġmines":9436,"Ġduration":9437,"Ġhosp":9438,"leton":9439,"ĠTales":9440,"oust":9441,"ĠSab":9442,"ĠSign":9443,"acter":9444,"Ġonwards":9445,"Ġongoing":9446,"urst":9447,"ĠMain":9448,"Ġgap":9449,"Ġforth":9450,"ĠBird":9451,"ĠBush":9452,"Ġstellar":9453,"usic":9454,"otes":9455,"ĠPak":9456,"ĠFle":9457,"ĠFreak":9458,"ĠDover":9459,"ĠDahl":9460,"ĠWN":9461,"ĠNon":9462,"ĠNel":9463,"Ġanime":9464,"ĠJen":9465,"odrom":9466,"Ġvs":9467,"Ġsuicide":9468,"oren":9469,"opl":9470,"artney":9471,"Ġchain":9472,"Ġchicks":9473,"ĠUpp":9474,"ĠKy":9475,"ĠStuart":9476,"ishops":9477,"iao":9478,"soft":9479,"ĠHealth":9480,"Ġrecall":9481,"Ġoffering":9482,"Ġenemies":9483,"ĠYellow":9484,"osexual":9485,"ensions":9486,"Ġthemed":9487,"Ġacute":9488,"Ġbuy":9489,"Ġsupplement":9490,"Ġentertain":9491,"Ġdecisions":9492,"Ġ117":9493,"Ġsigns":9494,"Ġbrigades":9495,"embers":9496,"ĠIsesi":9497,"Ġadvoc":9498,"Ġstring":9499,"ĠCarmel":9500,"ĠHerald":9501,"ĠHeritage":9502,"Ġguid":9503,"ĠChristians":9504,"ĠFeel":9505,"Ġconfront":9506,"Ġcontrad":9507,"Ġcontrols":9508,"ĠParamount":9509,"Ġhistorically":9510,"Ġsignificance":9511,"ospel":9512,"ĠAmb":9513,"Ġtooth":9514,"Ġgenetic":9515,"Ġreader":9516,"Ġtravelled":9517,"ĠYouTube":9518,"Ġhelping":9519,"Ġfacil":9520,"Ġprofession":9521,"Ġclosure":9522,"Ġcircle":9523,"Ġ350":9524,"Ġwider":9525,"Ġdevast":9526,"ĠMadero":9527,"Ġillness":9528,"Ġrebell":9529,"ĠMcCartney":9530,"ĠImm":9531,"ĠEverton":9532,"Ġadapt":9533,"ĠBelgian":9534,"Ġbatteries":9535,"ĠTwenty":9536,"ĠInterchange":9537,"ĠDelaware":9538,"Ġmagnetic":9539,"Ġelevation":9540,"Ġceremon":9541,"Ġpatterns":9542,"Ġaggressive":9543,"Ġwaiting":9544,"ĠNazi":9545,"Ġmobile":9546,"ĠGardner":9547,"ĠProvince":9548,"ĠAlberta":9549,"Ġdepicting":9550,"Ġpregnancy":9551,"Ġgravity":9552,"ĠHoover":9553,"ĠLessing":9554,"ĠWalker":9555,"Ġdisappoin":9556,"Ġaccompanying":9557,"ĠToninÃ¡":9558,"ĠNadal":9559,"ĠCredits":9560,"ĠUpper":9561,"bra":9562,"ean":9563,"face":9564,"iy":9565,"water":9566,"wick":9567,"where":9568,"Ġwish":9569,"Ġcategory":9570,"Ġtom":9571,"Ġdiver":9572,"Ġhook":9573,"ĠTax":9574,"ĠAT":9575,"ĠSin":9576,"star":9577,"Ġliqu":9578,"ĠMk":9579,"ĠMun":9580,"olia":9581,"tered":9582,"ĠBow":9583,"Ġstock":9584,"Ġstead":9585,"herry":9586,"ĠRom":9587,"ĠRivers":9588,"ĠFem":9589,"ĠFif":9590,"ĠDisc":9591,"ĠLas":9592,"ĠLane":9593,"Ġriding":9594,"rik":9595,"Ġsup":9596,"arded":9597,"Ġexclud":9598,"Ġshirt":9599,"ĠKate":9600,"Ġtrapped":9601,"ĠHeart":9602,"imeter":9603,"Ġpermission":9604,"Ġjury":9605,"Ġspots":9606,"Ġencl":9607,"Ġshear":9608,"ĠSeattle":9609,"Ġacycl":9610,"roph":9611,"arsh":9612,"Ġgrave":9613,"Ġsymp":9614,"erne":9615,"Ġsignal":9616,"Ġterrain":9617,"ĠAllosaurus":9618,"Ġpromin":9619,"ĠAdela":9620,"ĠAndre":9621,"rett":9622,"Ġcommands":9623,"Ġcommanders":9624,"Ġrequires":9625,"ĠMcE":9626,"ĠPriv":9627,"Ġsimilarly":9628,"itarian":9629,"ĠPerform":9630,"Ġfreedom":9631,"ĠCentre":9632,"Ġ1902":9633,"Ġdestroyer":9634,"Ġ1895":9635,"Ġvalues":9636,"Ġclosing":9637,"Ġhyg":9638,"ĠCrusad":9639,"Ġraising":9640,"ĠSydney":9641,"ĠMadonna":9642,"ĠKhan":9643,"Ġdonated":9644,"Ġexecution":9645,"Ġindicates":9646,"Ġembarked":9647,"Ġpairs":9648,"Ġparent":9649,"Ġgirls":9650,"Ġpolicies":9651,"Ġsearching":9652,"ĠCritics":9653,"Ġplatoon":9654,"Ġconcentrated":9655,"Ġprinted":9656,"Ġpreparing":9657,"Ġuniversities":9658,"Ġconnecting":9659,"Ġconversion":9660,"ĠObserv":9661,"Ġfarmers":9662,"ĠHeadquarters":9663,"ĠLeonard":9664,"Ġaimed":9665,"Ġdubbed":9666,"Ġexactly":9667,"Ġdoctrine":9668,"Ġaccurate":9669,"Ġdecorated":9670,"Ġhydrogen":9671,"penter":9672,"ĠArkansas":9673,"Ġcancelled":9674,"Ġfundamental":9675,"ĠStavanger":9676,"Ġconflicts":9677,"Ġphenomen":9678,"Ġacyclic":9679,"ĠAdelaide":9680,"bound":9681,"cour":9682,"dream":9683,"han":9684,"lock":9685,"oom":9686,"xic":9687,"Ã£":9688,"Ġwore":9689,"Ġfles":9690,"isle":9691,"Ġbore":9692,"Ġinfer":9693,"Ġinning":9694,"anag":9695,"Ġtouring":9696,"Ġmental":9697,"rose":9698,"Ġdense":9699,"Ġdanger":9700,"ĠhPa":9701,"lee":9702,"Ġreop":9703,"Ġreaches":9704,"Ġnave":9705,"Ġbears":9706,"Ġbeating":9707,"Ġbeats":9708,"ĠMaur":9709,"Ġgift":9710,"ĠHugh":9711,"ĠHNC":9712,"ĠPanz":9713,"ĠRick":9714,"ĠFood":9715,"ĠNav":9716,"Ġanch":9717,"Ġseats":9718,"Ġrushing":9719,"ĠEight":9720,"Ġprosec":9721,"ĠIntern":9722,"atever":9723,"ipes":9724,"iang":9725,"ĠVic":9726,"Ġabroad":9727,"oken":9728,"ffling":9729,"pled":9730,"Ġjew":9731,"Ġovert":9732,"active":9733,"Ġevolved":9734,"oyd":9735,"ĠMars":9736,"Ġpositively":9737,"Ġintercept":9738,"Ġapprec":9739,"ĠLeeds":9740,"Ġ01":9741,"Ġ125":9742,"Ġcaps":9743,"Ġbacking":9744,"Ġtransmission":9745,"Ġcontinental":9746,"Ġoperas":9747,"Ġcharacteristic":9748,"ĠChristi":9749,"Ġphone":9750,"ĠMcD":9751,"Ġfewer":9752,"Ġcrash":9753,"Ġstrongest":9754,"ĠAbd":9755,"Ġsolution":9756,"ĠDescription":9757,"Ġdetected":9758,"Ġaffil":9759,"ĠPolit":9760,"Ġfriendly":9761,"Ġsket":9762,"Ġtenure":9763,"Ġballad":9764,"Ġfunctions":9765,"ĠCorpus":9766,"Ġranks":9767,"ĠMorgan":9768,"grad":9769,"Ġanimated":9770,"ĠSerbs":9771,"ĠHarry":9772,"ĠDaydream":9773,"thodon":9774,"Ġcivilians":9775,"Ġwithdrawn":9776,"Ġ1840":9777,"Ġfailing":9778,"ĠDonald":9779,"ĠAngelou":9780,"ĠJeremy":9781,"Ġtemperatures":9782,"Ġcredit":9783,"Ġcredits":9784,"Ġunclear":9785,"Ġcounterp":9786,"Ġlogic":9787,"ĠBoys":9788,"Ġsevent":9789,"Ġpilots":9790,"ĠSurvey":9791,"Ġpursuit":9792,"Ġinternation":9793,"ĠFrancis":9794,"ĠHawaiÊ»":9795,"Ġcompositions":9796,"Ġninet":9797,"ĠBooks":9798,"Ġharbour":9799,"Ġqualified":9800,"Ġsteps":9801,"Ġprisoners":9802,"ĠNightingale":9803,"Ġmelody":9804,"Ġmolecular":9805,"Ġmountains":9806,"ĠDerffling":9807,"Ġsolely":9808,"ĠFalls":9809,"Ġinteractions":9810,"Ġwickets":9811,"ĠBroadway":9812,"Ġsleep":9813,"Ġwealthy":9814,"ĠWyoming":9815,"Ġleukemia":9816,"ĠWatson":9817,"Ġsympt":9818,"Ġvegetation":9819,"ĠBulgar":9820,"ĠHungarian":9821,"Ġmaintaining":9822,"ĠEccl":9823,"Ġashore":9824,"ĠFernandez":9825,"ĠTigers":9826,"Ġvertex":9827,"Ġtissue":9828,"ĠDynasty":9829,"Ġcousin":9830,"Ġflesh":9831,"ĠPanzer":9832,"ĠInternet":9833,"ĠHawaiÊ»i":9834,"ĠDerfflinger":9835,"bing":9836,"equ":9837,"fra":9838,"hire":9839,"iac":9840,"po":9841,"power":9842,"ygen":9843,"zong":9844,"Ġid":9845,"Ġacted":9846,"rehens":9847,"enger":9848,"esters":9849,"Ġinher":9850,"alf":9851,"ingray":9852,"Ġdual":9853,"entle":9854,"ĠActor":9855,"street":9856,"omic":9857,"ĠCO":9858,"ĠCricket":9859,"Ġgaining":9860,"ĠBorn":9861,"ĠBarn":9862,"ĠBatter":9863,"ows":9864,"ĠHop":9865,"aya":9866,"ĠPoly":9867,"ĠRap":9868,"ĠDub":9869,"ĠWelling":9870,"ĠWitch":9871,"ĠGot":9872,"ĠGael":9873,"ĠLiving":9874,"ĠLibrary":9875,"estyle":9876,"Ġchampions":9877,"Ġplatinum":9878,"ĠUtah":9879,"ĠKody":9880,"Ġcompens":9881,"Ġclothes":9882,"ĠHeavy":9883,"Ġpermitted":9884,"ector":9885,"ective":9886,"ĠAlmost":9887,"Ġdisrupt":9888,"ultan":9889,"Ġevolution":9890,"oyle":9891,"Ġassembly":9892,"Ġamph":9893,"Ġsurprise":9894,"Ġ105":9895,"Ġnumbered":9896,"tenance":9897,"Ġ127":9898,"Ġ168":9899,"Ġ114":9900,"Ġbrain":9901,"Ġobtain":9902,"ĠMaya":9903,"ĠZoo":9904,"aza":9905,"Ġsuccession":9906,"Ġsuccessive":9907,"ĠAdminist":9908,"Ġrestore":9909,"Ġincreases":9910,"Ġreviewed":9911,"Ġhanded":9912,"eltown":9913,"Ġstarter":9914,"Ġcoverage":9915,"Ġanticip":9916,"ĠRomania":9917,"Ġ1903":9918,"ĠNeil":9919,"Ġgoods":9920,"Ġcougars":9921,"Ġideal":9922,"Ġcyt":9923,"Ġoccurring":9924,"Ġrevival":9925,"Ġidentify":9926,"Ġanimation":9927,"Ġ1889":9928,"Ġmeasuring":9929,"ĠArabs":9930,"Ġheavier":9931,"Ġcruisers":9932,"ĠYears":9933,"Ġobservation":9934,"Ġconsistent":9935,"ĠBradstreet":9936,"Ġseriously":9937,"ĠTrees":9938,"Ġtargets":9939,"Ġreinforced":9940,"ĠAntimony":9941,"Ġgrandfather":9942,"Ġlifetime":9943,"Ġwalking":9944,"Ġoxygen":9945,"Ġparliamentary":9946,"ĠSora":9947,"Ġbeauty":9948,"Ġvirtually":9949,"Ġbowling":9950,"ĠJurchens":9951,"ĠCyrus":9952,"Ġownership":9953,"Ġpregnant":9954,"Ġrelegated":9955,"ĠTransportation":9956,"ĠBaseball":9957,"ĠBedell":9958,"Ġappropriate":9959,"schild":9960,"ĠHampshire":9961,"Ġadministrative":9962,"Ġphotographs":9963,"ĠRothschild":9964,"ĠAuthor":9965,"ĠMantell":9966,"Ġinterpreted":9967,"ĠXIII":9968,"yramid":9969,"fraid":9970,"ĠWellington":9971,"ĠGaelic":9972,"CU":9973,"jo":9974,"ras":9975,"worth":9976,"inus":9977,"Ġtherap":9978,"Ġsings":9979,"Ġsized":9980,"unch":9981,"ori":9982,"Ġcode":9983,"itia":9984,"Ġfame":9985,"Ġfault":9986,"enous":9987,"Ġbon":9988,"Ġban":9989,"aration":9990,"Ġtours":9991,"Ġtoler":9992,"Ġmir":9993,"rous":9994,"icul":9995,"Ġhills":9996,"ĠSon":9997,"ĠSet":9998,"stal":9999,"Ġlaugh":10000,"Ġloud":10001,"Ġnaming":10002,"ĠCas":10003,"ĠMix":10004,"ĠIOC":10005,"Ġgar":10006,"Ġgang":10007,"olve":10008,"ĠPC":10009,"ĠPot":10010,"ĠDS":10011,"ĠDot":10012,"ĠDram":10013,"ĠData":10014,"ĠNat":10015,"ĠLooking":10016,"Ġseized":10017,"Ġrid":10018,"Ġrains":10019,"ĠOak":10020,"ĠEg":10021,"ĠEconom":10022,"ĠEtty":10023,"udo":10024,"ĠKau":10025,"ĠKÅį":10026,"oster":10027,"ormal":10028,"Ġadmin":10029,"Ġperceived":10030,"Ġagency":10031,"Ġmanip":10032,"Ġjet":10033,"acts":10034,"Ġattitude":10035,"Ġfeud":10036,"Ġ83":10037,"Ġcancel":10038,"Ġregistered":10039,"Ġdoctor":10040,"Ġgrade":10041,"Ġbacked":10042,"Ġdiff":10043,"Ġcontinuous":10044,"Ġrunway":10045,"Ġdepiction":10046,"Ġdownstream":10047,"Ġdistrib":10048,"Ġinfection":10049,"Ġsixteen":10050,"Ġvaried":10051,"Ġguides":10052,"Ġhelps":10053,"ĠTristan":10054,"issioned":10055,"Ġbelieving":10056,"ĠGrace":10057,"ĠRoom":10058,"Ġexplicit":10059,"Ġengagement":10060,"Ġcapturing":10061,"ĠManuel":10062,"Ġ230":10063,"Ġauthorized":10064,"Ġsitting":10065,"Ġrepresentatives":10066,"Ġballs":10067,"Ġpitching":10068,"Ġpromotional":10069,"Ġrevived":10070,"regular":10071,"Ġcommenting":10072,"Ġaudition":10073,"Ġarmies":10074,"Ġflooded":10075,"ĠChristianity":10076,"Ġexcell":10077,"Ġgolden":10078,"ĠImport":10079,"Ġhoused":10080,"Ġ1849":10081,"ĠCollection":10082,"Ġparticipate":10083,"Ġblocked":10084,"ĠStudies":10085,"legraph":10086,"Ġsynagogue":10087,"Ġautom":10088,"Ġdispat":10089,"Ġvotes":10090,"Ġunderstood":10091,"Ġheroes":10092,"Ġhabitats":10093,"Ġsecretary":10094,"Ġconstitu":10095,"Ġquestioned":10096,"Ġsubsid":10097,"Ġtasked":10098,"Ġsporting":10099,"Ġchampionships":10100,"ĠContem":10101,"Ġreactions":10102,"Ġirregular":10103,"ĠHalo":10104,"Ġdeparted":10105,"ĠPalestinian":10106,"Ġresemble":10107,"ĠUlt":10108,"ĠColdrum":10109,"Ġhamper":10110,"ĠOhio":10111,"Ġpuzzles":10112,"Ġpounder":10113,"ĠMLB":10114,"Ġsuddenly":10115,"ĠRhodesian":10116,"Ġbalance":10117,"Ġdisplaced":10118,"Ġproportion":10119,"ĠJoyful":10120,"Ġclothing":10121,"Ġmanuscripts":10122,"ĠMargaret":10123,"Ġannouncement":10124,"Ġbodyline":10125,"Ġkilometers":10126,"Ġhospitals":10127,"Ġentertainment":10128,"cover":10129,"iad":10130,"kÃ¶n":10131,"rep":10132,"Ġwolf":10133,"Ġbanks":10134,"anville":10135,"Ġpap":10136,"Ġpistol":10137,"Ġdod":10138,"ĠTit":10139,"ĠAA":10140,"ĠSay":10141,"ĠShip":10142,"Ġech":10143,"ĠCant":10144,"ĠCome":10145,"eloc":10146,"ĠMort":10147,"ĠIowa":10148,"terior":10149,"ĠBÃ":10150,"ĠBuck":10151,"ĠBapt":10152,"thren":10153,"Ġstim":10154,"ĠHannah":10155,"ĠPan":10156,"ĠPur":10157,"ĠProm":10158,"ĠPier":10159,"ĠRÃ¤":10160,"ĠDor":10161,"ĠDick":10162,"ĠDennis":10163,"ĠWik":10164,"ĠWrestling":10165,"ĠWrapped":10166,"ĠNM":10167,"ĠGround":10168,"ĠList":10169,"agen":10170,"Ġsew":10171,"Ġrays":10172,"ĠExt":10173,"Ġvir":10174,"Ġcomponent":10175,"Ġcompilation":10176,"Ġherd":10177,"Ġcler":10178,"ĠHeb":10179,"ondheim":10180,"Ġscar":10181,"Ġscorer":10182,"ricts":10183,"ĠReb":10184,"ĠDeep":10185,"Ġflies":10186,"Ġnoble":10187,"Ġqueen":10188,"Ġaccum":10189,"Ġcoaching":10190,"Ġepic":10191,"Ġmainstream":10192,"ĠShell":10193,"Ġ174":10194,"Ġdistances":10195,"Ġdistricts":10196,"anches":10197,"azer":10198,"Ġpassion":10199,"ĠBlu":10200,"Ġmetall":10201,"Ġedited":10202,"ashi":10203,"ikkÃ¶n":10204,"ĠTrondheim":10205,"Ġapproaches":10206,"Ġrefere":10207,"Ġreplied":10208,"Ġarchbishop":10209,"Ġvictim":10210,"Ġ240":10211,"Ġaffairs":10212,"Ġfactor":10213,"Ġprize":10214,"ĠMorning":10215,"Ġlacking":10216,"Ġveter":10217,"ĠMonkey":10218,"Ġindustries":10219,"mingham":10220,"Ġruler":10221,"Ġzomb":10222,"ĠMcCar":10223,"ĠSlayer":10224,"Ġmemories":10225,"Ġarrangements":10226,"ĠCampaign":10227,"ĠForeign":10228,"ĠSky":10229,"ĠSkinner":10230,"barian":10231,"Ġdependent":10232,"ĠInterstate":10233,"Ġkickoff":10234,"Ġtouchdowns":10235,"Ġsalv":10236,"ĠHaitian":10237,"Ġrescued":10238,"Ġcandidates":10239,"ĠNCAA":10240,"Ġroller":10241,"Ġflew":10242,"ĠBirmingham":10243,"Ġteachers":10244,"Ġshrine":10245,"Ġcomprised":10246,"Ġfastest":10247,"ĠCreutz":10248,"ĠGregory":10249,"blazer":10250,"Ġaerodrom":10251,"Ġundertaken":10252,"Ġdisturbance":10253,"ĠHonor":10254,"Ġvicinity":10255,"ĠHellblazer":10256,"Ġstrategic":10257,"Ġabsorbed":10258,"ĠBosn":10259,"ĠPalmyrene":10260,"Ġtickets":10261,"Ġrestrictions":10262,"ĠStaley":10263,"Ġmystery":10264,"ĠVegas":10265,"Ġmathemat":10266,"ĠTokyo":10267,"ĠZanzibar":10268,"ĠEcclestone":10269,"ĠRÃ¤ikkÃ¶n":10270,"ĠRÃ¤ikkÃ¶nen":10271,"book":10272,"fe":10273,"la":10274,"pir":10275,"pse":10276,"wan":10277,"zona":10278,"¬nh":10279,"Æ°":10280,"Ġtrough":10281,"Ġtalent":10282,"ini":10283,"inness":10284,"erm":10285,"Ġworn":10286,"athered":10287,"Ġcrick":10288,"Ġcraf":10289,"Ġfru":10290,"Ġpp":10291,"Ġpunt":10292,"Ġmac":10293,"rot":10294,"Ġda":10295,"Ġdust":10296,"Ġdiamond":10297,"Ġhur":10298,"ĠTree":10299,"Ġreag":10300,"ĠAub":10301,"ĠAges":10302,"ĠCit":10303,"uras":10304,"urance":10305,"ĠMack":10306,"ĠMoon":10307,"ĠIv":10308,"Ġgor":10309,"olence":10310,"imer":10311,"ĠHair":10312,"oted":10313,"ĠPam":10314,"ĠPole":10315,"ĠRul":10316,"ĠFul":10317,"ĠFather":10318,"ĠDod":10319,"ĠDoo":10320,"Ġatop":10321,"romet":10322,"ĠNine":10323,"ĠLad":10324,"ĠLind":10325,"ĠLiter":10326,"Ġhearing":10327,"Ġsending":10328,"Ġrig":10329,"oded":10330,"Ġvital":10331,"Ġaboard":10332,"Ġadmir":10333,"ĠThak":10334,"arest":10335,"achute":10336,"wegian":10337,"Ġspeaker":10338,"ensively":10339,"oints":10340,"ĠReagan":10341,"ilda":10342,"alsa":10343,"veland":10344,"Ġrelatives":10345,"Ġconsent":10346,"ĠMarie":10347,"Ġfourteen":10348,"Ġlocally":10349,"Ġpole":10350,"Ġpoets":10351,"ĠShim":10352,"ĠShadow":10353,"Ġpopul":10354,"Ġmaintenance":10355,"ĠBright":10356,"Ġminers":10357,"Ġbrut":10358,"Ġbrilliant":10359,"emble":10360,"ĠIsle":10361,"ĠZagre":10362,"Ġmatters":10363,"Ġinsurg":10364,"ĠPlaces":10365,"Ġconcession":10366,"Ġdrinking":10367,"Ġextinct":10368,"Ġextensively":10369,"ĠTrue":10370,"Ġjustice":10371,"Ġopposing":10372,"Ġmedal":10373,"ĠÂµ":10374,"ĠMcM":10375,"Ġmyster":10376,"Ġmembrane":10377,"luence":10378,"Ġbehalf":10379,"Ġcurved":10380,"Ġ1901":10381,"Ġ1906":10382,"ficial":10383,"Ġgenes":10384,"ĠFederation":10385,"Ġpraising":10386,"arris":10387,"iscus":10388,"ĠHighland":10389,"Ġredes":10390,"hemical":10391,"Ġtrend":10392,"Ġaudio":10393,"ĠExper":10394,"Ġarguing":10395,"Ġcutting":10396,"Ġhitting":10397,"Ġterritorial":10398,"Ġmachinery":10399,"Ġbusinesses":10400,"Ġescaped":10401,"Ġpenet":10402,"Ġtraveling":10403,"Ġchapters":10404,"Ġarchaeologists":10405,"ĠSingh":10406,"Ġdenomin":10407,"ĠTommy":10408,"guard":10409,"Ġobservatory":10410,"ĠMeteorological":10411,"Ġconsistently":10412,"ĠQuiney":10413,"Ġbombing":10414,"Ġmarketing":10415,"Ġconcepts":10416,"ĠNorwegian":10417,"Ġ1819":10418,"Ġpuppet":10419,"Ġexhibition":10420,"Ġrequirements":10421,"Ġuniverse":10422,"ĠSenator":10423,"Ġfragment":10424,"Ġwait":10425,"Ġextending":10426,"Ġpictures":10427,"Ġbatsmen":10428,"ĠMatthew":10429,"Ġagriculture":10430,"ĠCambodian":10431,"Ġexclusive":10432,"ĠBruce":10433,"Ġlaboratory":10434,"ĠReturn":10435,"Ġsurrend":10436,"Ġaerial":10437,"ĠArizona":10438,"ĠKennedy":10439,"ĠArchaeological":10440,"ĠCleveland":10441,"Ġliner":10442,"Ġrubber":10443,"ĠHughes":10444,"Ġjuven":10445,"ĠHobbs":10446,"Ġrecurring":10447,"Ġconjunction":10448,"ĠProfessor":10449,"ĠBeeton":10450,"ĠCorbet":10451,"Ġcomplimented":10452,"Ġtubes":10453,"Ġcrickets":10454,"ĠZagreb":10455,"CW":10456,"PA":10457,"gers":10458,"iography":10459,"iÃ¨":10460,"iÄĩ":10461,"ng":10462,"rad":10463,"tical":10464,"zo":10465,"Ġtaste":10466,"inaw":10467,"eries":10468,"Ġsqu":10469,"una":10470,"orage":10471,"Ġcosm":10472,"Ġfaster":10473,"Ġfulf":10474,"esh":10475,"Ġpushing":10476,"Ġpyramid":10477,"Ġmand":10478,"Ġhapp":10479,"Ġreper":10480,"Ġrecept":10481,"Ġreven":10482,"Ġrevenue":10483,"ĠAf":10484,"ĠSox":10485,"Ġlad":10486,"Ġliv":10487,"ĠCond":10488,"ĠIA":10489,"Ġgene":10490,"olin":10491,"iger":10492,"Ġstick":10493,"ĠHong":10494,"ĠHurricanes":10495,"ĠPagan":10496,"ĠRa":10497,"Ġalive":10498,"ĠFut":10499,"ĠFiles":10500,"ĠDance":10501,"ĠDoyle":10502,"osity":10503,"ĠNASA":10504,"ĠGill":10505,"ĠLam":10506,"ĠLiao":10507,"ĠJoint":10508,"Ġdeals":10509,"Ġracing":10510,"ĠOw":10511,"Ġexceed":10512,"ĠKyle":10513,"ĠStars":10514,"Ġtrains":10515,"Ġtrails":10516,"cles":10517,"ĠChampion":10518,"ogram":10519,"Ġusers":10520,"Ġusual":10521,"Ġabuse":10522,"ĠAlg":10523,"overy":10524,"Ġspawn":10525,"Ġenorm":10526,"aceous":10527,"Ġsheep":10528,"Ġcommenced":10529,"Ġallocated":10530,"Ġweekend":10531,"ensis":10532,"Ġcentimetres":10533,"ribi":10534,"ĠReines":10535,"underst":10536,"Ġcanon":10537,"ĠMarge":10538,"ĠComedy":10539,"Ġacoust":10540,"Ġapply":10541,"Ġdecomm":10542,"Ġpresents":10543,"phrey":10544,"ĠJohnny":10545,"Ġbrand":10546,"Ġcouldn":10547,"Ġoperational":10548,"Ġprovincial":10549,"Ġmature":10550,"Ġsimpl":10551,"Ġadvised":10552,"ĠCarpenter":10553,"ĠPlateau":10554,"Ġgovernments":10555,"Ġguide":10556,"asha":10557,"ĠGuine":10558,"Ġtracked":10559,"Ġexplore":10560,"Ġexploration":10561,"Ġsugar":10562,"ĠMcN":10563,"Ġlegacy":10564,"Ġcourses":10565,"Ġmyself":10566,"Ġpropaganda":10567,"Ġ220":10568,"Ġ261":10569,"Ġstatements":10570,"ĠAtlÃ©t":10571,"Ġ1897":10572,"Ġrocks":10573,"rieved":10574,"Ġpredicted":10575,"Ġlacked":10576,"ĠSerb":10577,"Ġhostile":10578,"ĠPartington":10579,"Ġdevice":10580,"Ġmotif":10581,"Ġ1878":10582,"ĠEgyptians":10583,"Ġinvestment":10584,"Ġzinc":10585,"Ġpersist":10586,"Ġtransported":10587,"Ġpeninsula":10588,"Ġtested":10589,"Ġpresidential":10590,"Ġexamination":10591,"ĠOpera":10592,"ĠOperations":10593,"ĠFinally":10594,"ĠHoloca":10595,"ĠJustin":10596,"ĠSixth":10597,"ĠHumphrey":10598,"Ġbeaten":10599,"Ġneighbour":10600,"ographical":10601,"ĠCommunity":10602,"ĠJosÃ©":10603,"Ġvenue":10604,"ĠBrenda":10605,"ĠPopular":10606,"ĠWorks":10607,"Ġhoriz":10608,"ĠKenneth":10609,"Ġhouseholds":10610,"ĠUrania":10611,"ĠLucas":10612,"ĠArchaeology":10613,"Ġimmigration":10614,"ĠFlower":10615,"Ġpartnership":10616,"Ġindigenous":10617,"ĠLocal":10618,"Ġrenewed":10619,"Ġconscious":10620,"Ġfuneral":10621,"ĠVulcan":10622,"Ġconsolid":10623,"ĠGlobe":10624,"Ġintellectual":10625,"agoda":10626,"Ġtwentieth":10627,"ĠEuropa":10628,"ĠKyra":10629,"Ġtombs":10630,"Ġsteadily":10631,"ĠContemporary":10632,"ĠAtlÃ©tico":10633,"ĠHolocaust":10634,"CO":10635,"ES":10636,"RNA":10637,"fly":10638,"join":10639,"mbrace":10640,"rÃŃ":10641,"uters":10642,"uating":10643,"zz":10644,"»¿":10645,"inted":10646,"incess":10647,"Ġsoci":10648,"Ġsnow":10649,"Ġwre":10650,"Ġward":10651,"Ġcemetery":10652,"itely":10653,"Ġing":10654,"arro":10655,"alog":10656,"asm":10657,"Ġmate":10658,"Ġmood":10659,"ĠTu":10660,"ĠTen":10661,"ĠTrophy":10662,"Ġreward":10663,"Ġlumber":10664,"Ġlumin":10665,"Ġeating":10666,"ĠCart":10667,"ĠCass":10668,"ĠMong":10669,"olm":10670,"olt":10671,"ĠBal":10672,"ĠBoss":10673,"irts":10674,"Ġstyl":10675,"ĠHay":10676,"ĠHockey":10677,"uther":10678,"ĠPirates":10679,"andra":10680,"andern":10681,"ĠGraham":10682,"ĠLÃ¼":10683,"Ġseas":10684,"riarch":10685,"Ġcomfort":10686,"Ġproceeded":10687,"ifeng":10688,"aple":10689,"ighters":10690,"Ġpled":10691,"Ġplate":10692,"Ġplacing":10693,"Ġkid":10694,"gends":10695,"Ġcomprom":10696,"Ġunrest":10697,"ogan":10698,"hedruli":10699,"ubles":10700,"ĠVandern":10701,"ĠThai":10702,"Ġ1800":10703,"Ġjaw":10704,"Ġoffshore":10705,"Ġenforce":10706,"Ġcanals":10707,"Ġconsum":10708,"Ġassert":10709,"Ġspeculation":10710,"Ġacre":10711,"Ġretain":10712,"Ġacceler":10713,"Ġamid":10714,"Ġcook":10715,"ended":10716,"Ġsingers":10717,"Ġ169":10718,"Ġstudying":10719,"ĠBrack":10720,"Ġdevelopers":10721,"Ġmayor":10722,"Ġcomplement":10723,"Ġdistant":10724,"ĠAustrian":10725,"tym":10726,"Ġwarned":10727,"Ġrepairs":10728,"Ġairports":10729,"Ġconstantly":10730,"ĠColomb":10731,"ĠCloud":10732,"Ã©e":10733,"ĠGuild":10734,"Ġports":10735,"Ġportions":10736,"Ġvisits":10737,"Ġapproaching":10738,"Ġtrio":10739,"Ġslopes":10740,"Ġstorylines":10741,"Ġmarking":10742,"ĠPrincess":10743,"ĠBox":10744,"ĠComputer":10745,"ĠComposition":10746,"ĠCompanies":10747,"Ġmagical":10748,"Ġsitu":10749,"Ġreportedly":10750,"Ġobsc":10751,"ĠAfricaine":10752,"ĠCharmbrace":10753,"Ġcorpor":10754,"Ġconventional":10755,"Ġpriests":10756,"ĠGlanville":10757,"Ġvaluable":10758,"Ġargument":10759,"ĠCrash":10760,"Ġvolumes":10761,"Ġfunded":10762,"ĠPlayers":10763,"ĠPhilipp":10764,"Ġthreats":10765,"Ġload":10766,"Ġpersons":10767,"Ġbreaks":10768,"Ġminority":10769,"ĠAgency":10770,"ĠSuperman":10771,"Ġhomosexual":10772,"Ġautob":10773,"Ġautumn":10774,"ĠOffic":10775,"abyrin":10776,"ĠFranklin":10777,"ĠRussell":10778,"Ġcelebrate":10779,"awny":10780,"Ġtalks":10781,"Ġsexuality":10782,"Ġconcentration":10783,"Ġvoices":10784,"Ġconnections":10785,"ĠLloyd":10786,"ĠAlfa":10787,"Ġchallenging":10788,"ĠVillaret":10789,"Ġflagship":10790,"ĠKaifeng":10791,"Ġcalculated":10792,"Ġsponsored":10793,"ĠMovie":10794,"Ġquoted":10795,"Ġignored":10796,"ĠLancaster":10797,"Ġinaugural":10798,"Ġintegr":10799,"Ġexhausted":10800,"Ġabsolute":10801,"Ġtributaries":10802,"Ġdensity":10803,"ĠCecil":10804,"orrowed":10805,"Ġinsects":10806,"Ġcondemned":10807,"ĠBanksia":10808,"Ġï»¿":10809,"Ġalphab":10810,"ĠMkhedruli":10811,"ĠNavarro":10812,"ĠCantrell":10813,"ĠBaptist":10814,"ĠHebrew":10815,"ĠVandernoot":10816,"ĠCharmbracelet":10817,"abyrinth":10818,"VP":10819,"bow":10820,"feller":10821,"gud":10822,"ht":10823,"nall":10824,"rh":10825,"tz":10826,"zhou":10827,"Ġtorn":10828,"reens":10829,"Ġwaves":10830,"atum":10831,"Ġbeds":10832,"aria":10833,"arged":10834,"Ġpig":10835,"Ġpink":10836,"Ġtoxic":10837,"icians":10838,"Ġdying":10839,"Ġhi":10840,"Ġhind":10841,"ĠTong":10842,"ĠTide":10843,"Ġreun":10844,"ilis":10845,"ĠSina":10846,"ĠSultan":10847,"Ġnom":10848,"Ġnut":10849,"ĠCad":10850,"ĠCirc":10851,"ĠMission":10852,"ĠMVP":10853,"ĠImp":10854,"Ġgathered":10855,"olics":10856,"ĠBilly":10857,"igious":10858,"Ġstall":10859,"ĠPup":10860,"ĠRaid":10861,"ĠRaf":10862,"ĠFried":10863,"ĠFarm":10864,"ĠDress":10865,"ĠGiel":10866,"ĠLt":10867,"ĠLamb":10868,"Ġheir":10869,"Ġrivals":10870,"ĠEle":10871,"ĠEch":10872,"ĠEve":10873,"Ġventure":10874,"ĠInvest":10875,"apol":10876,"ocent":10877,"Ġshield":10878,"Ġlect":10879,"ĠStill":10880,"Ġtrunk":10881,"Ġunless":10882,"Ġclergy":10883,"Ġresid":10884,"place":10885,"Ġscr":10886,"Ġscreens":10887,"Ġmanage":10888,"Ġovers":10889,"Ġspore":10890,"ibilities":10891,"kefeller":10892,"Ġfinest":10893,"Ġprest":10894,"Ġattorney":10895,"Ġcentered":10896,"rible":10897,"ĠSev":10898,"ĠSeven":10899,"Ġknocked":10900,"ĠArn":10901,"Ġconsumption":10902,"Ġundergo":10903,"Ġcolours":10904,"Ġnoise":10905,"Ġbuoys":10906,"ĠLeices":10907,"Ġdozen":10908,"anya":10909,"Ġsurpass":10910,"Ġ106":10911,"Ġdecide":10912,"Ġpreserve":10913,"ĠBristol":10914,"Ġmonit":10915,"Ġmini":10916,"Ġsmoke":10917,"Ġshipments":10918,"uedoc":10919,"ĠIsles":10920,"ĠAustro":10921,"ĠAustria":10922,"rapping":10923,"ĠConn":10924,"Ġairfield":10925,"Ġpassages":10926,"ĠBlues":10927,"Ġedit":10928,"Ġvariations":10929,"ĠClocks":10930,"ĠAdult":10931,"Ġdrivers":10932,"ĠYorkshire":10933,"Ġmarch":10934,"Ġprogressed":10935,"Ġhumor":10936,"Ġcollections":10937,"Ġlegit":10938,"Ġreplacing":10939,"Ġtraditions":10940,"Ġsimilarities":10941,"Ġsoldier":10942,"Ġroadway":10943,"Ġpoliticians":10944,"Ġstronger":10945,"Ġ1904":10946,"ambo":10947,"Ġcorps":10948,"ĠElgin":10949,"Ġtravels":10950,"Ġgrows":10951,"Ġimprovement":10952,"ĠBerht":10953,"Ġcircuit":10954,"ĠCommandos":10955,"Ġdeterior":10956,"Ġlyrical":10957,"ĠSmall":10958,"Ġphysics":10959,"Ġgraduate":10960,"Ġmemorable":10961,"ĠCatholics":10962,"Ġflows":10963,"Ġhoping":10964,"nyi":10965,"Ġintersects":10966,"Ġsalary":10967,"Ġessentially":10968,"Ġemotions":10969,"Ġtasks":10970,"Ġdynamic":10971,"ĠAviation":10972,"Ġpermanently":10973,"Ġduo":10974,"Ġbelonging":10975,"claimed":10976,"Ġfragments":10977,"ĠLarry":10978,"Ġdevoted":10979,"Ġimagery":10980,"Ġtimber":10981,"ĠUlster":10982,"Ġreflecting":10983,"Ġhamlet":10984,"Ġoccasional":10985,"Ġmoist":10986,"Ġstretched":10987,"ĠRonald":10988,"Ġvertices":10989,"hua":10990,"ĠQedarites":10991,"Ġrepeatedly":10992,"Ġexperimental":10993,"Ġwicket":10994,"ĠBhair":10995,"ĠGanges":10996,"Ġpuzzle":10997,"Ġloved":10998,"Ġprospect":10999,"Ġindigo":11000,"Ġurged":11001,"Ġsanct":11002,"Ġjackrabbit":11003,"ĠRockefeller":11004,"Ġdivorce":11005,"Ġdiplomatic":11006,"Ġcooperation":11007,"Ġteammate":11008,"ĠLoverboy":11009,"ĠLanguedoc":11010,"ĠMachine":11011,"Ġtruly":11012,"ĠFreakum":11013,"ĠWNO":11014,"ĠNelson":11015,"ĠPerformance":11016,"iaduct":11017,"ĠAuburn":11018,"ĠRuler":11019,"Ġmysterious":11020,"Ġsurrendered":11021,"ĠSinai":11022,"ĠGielgud":11023,"ĠLeicester":11024,"ĠBerhtwald":11025,"EA":11026,"evelop":11027,"gans":11028,"ii":11029,"ker":11030,"kner":11031,"lights":11032,"mad":11033,"oided":11034,"vada":11035,"Ġurg":11036,"ĨĴ":11037,"Ġtort":11038,"Ġtape":11039,"Ġath":11040,"Ġsic":11041,"Ġsibl":11042,"Ġsacked":11043,"Ġcards":11044,"enar":11045,"isp":11046,"Ġintend":11047,"Ġpin":11048,"ashes":11049,"Ġtools":11050,"Ġdressed":11051,"ĠSout":11052,"Ġnavy":11053,"Ġnaked":11054,"amation":11055,"ĠCov":11056,"ĠCret":11057,"ĠMond":11058,"Ġgarn":11059,"ĠBM":11060,"irty":11061,"Ġascend":11062,"iga":11063,"igadier":11064,"owed":11065,"Ġstability":11066,"Ġstanz":11067,"ĠHur":11068,"ĠRover":11069,"ĠFast":11070,"ĠFaul":11071,"ĠWant":11072,"osy":11073,"ĠGack":11074,"ĠLoy":11075,"ĠJag":11076,"ĠEp":11077,"akim":11078,"ĠâĨĴ":11079,"Ġsharp":11080,"Ġshallow":11081,"ĠâĢ¦":11082,"ĠUk":11083,"ĠKle":11084,"ĠKings":11085,"ipitation":11086,"Ġcompan":11087,"raits":11088,"Ġunex":11089,"ubs":11090,"ĠVik":11091,"Ġadequ":11092,"Ġscenar":11093,"Ġjunction":11094,"Ġspan":11095,"Ġimperial":11096,"enson":11097,"issions":11098,"Ġknock":11099,"ictions":11100,"ĠDevin":11101,"Ġendors":11102,"ĠLeban":11103,"anka":11104,"Ġgrain":11105,"Ġgrap":11106,"Ġ04":11107,"pense":11108,"phant":11109,"ĠScots":11110,"Ġminimal":11111,"Ġ116":11112,"Ġ118":11113,"Ġbrood":11114,"Ġlandmark":11115,"azing":11116,"ĠBeau":11117,"ĠTelegraph":11118,"Ġguarant":11119,"Ġpublicly":11120,"Ġdirecting":11121,"Ġverses":11122,"Ġconfusion":11123,"Ġdestination":11124,"ĠWeather":11125,"Ġdemon":11126,"Ġplanes":11127,"Ġplanets":11128,"Ġaviation":11129,"Ġavoided":11130,"Ġmagic":11131,"ĠBarbarian":11132,"Ġinvolves":11133,"Ġposts":11134,"Ġgenu":11135,"ĠNeolithic":11136,"ĠNevada":11137,"Ġlimits":11138,"Ġnightingale":11139,"Ġfunny":11140,"Ġsurvival":11141,"Ġbattlefield":11142,"Ġprocessing":11143,"Ã¡n":11144,"Ġ1857":11145,"Ġbarrier":11146,"Ġacceptable":11147,"Ġceased":11148,"ĠCrab":11149,"Ġdraws":11150,"ĠActress":11151,"mediate":11152,"Ġemployment":11153,"Ġseemingly":11154,"Ġviolation":11155,"Ġopined":11156,"Ġdealing":11157,"ĠMontreal":11158,"ĠÃĨ":11159,"ĠStudio":11160,"Ġscreened":11161,"Ġlinks":11162,"ĠMetro":11163,"Ġcomplicated":11164,"ĠBradman":11165,"Ġdedication":11166,"ĠFormation":11167,"Ġkicked":11168,"Ġambassador":11169,"Ġangle":11170,"Ġboyfriend":11171,"Ġessay":11172,"ĠMillennium":11173,"ĠJimmy":11174,"Ġnarrator":11175,"ĠDirect":11176,"Ġfamiliar":11177,"Ġremarkable":11178,"Ġmanufacturing":11179,"Ġduet":11180,"Ġbattleship":11181,"Ġopinions":11182,"ĠLoose":11183,"Ġtunnels":11184,"Ġperfectly":11185,"Ġdevotion":11186,"ĠRailroad":11187,"Ġmythology":11188,"Ġhorror":11189,"Ġsufficiently":11190,"Ġtonnes":11191,"ĠTrail":11192,"Ġevacuated":11193,"ĠBernard":11194,"Ġdisappeared":11195,"ĠAntonio":11196,"Ġrelegation":11197,"iblical":11198,"Ġshifted":11199,"Ġprice":11200,"Ġsongwriter":11201,"Ġaccommodate":11202,"Ġprohibited":11203,"ĠCultural":11204,"Ġbombardment":11205,"ĠYugoslavia":11206,"Ġsubstance":11207,"Ġpredominantly":11208,"ĠRobinson":11209,"Ġrectangular":11210,"ĠRemix":11211,"Ġdrainage":11212,"ĠCPS":11213,"Ġisotopes":11214,"Ġbombs":11215,"ĠMaurice":11216,"Ġsymptoms":11217,"Ġamphib":11218,"ĠMcCarthy":11219,"ĠShimomura":11220,"Ġenormous":11221,"Ġathlete":11222,"Ġsiblings":11223,"ĠCretaceous":11224,"Ġgarnered":11225,"ĠFaulkner":11226,"ĠGacko":11227,"CE":11228,"OM":11229,"box":11230,"cut":11231,"har":11232,"iors":11233,"saku":11234,"wight":11235,"ygh":11236,"zed":11237,"¡ng":11238,"Æ¡ng":11239,"à¸":11240,"Ġion":11241,"inate":11242,"Ġsick":11243,"Ġsaint":11244,"Ġsoph":11245,"Ġwrest":11246,"Ġcash":11247,"Ġcensus":11248,"Ġcavalry":11249,"Ġfires":11250,"Ġbull":11251,"Ġmg":11252,"ĠTow":11253,"Ġrejoin":11254,"ĠAk":11255,"ĠSpe":11256,"Ġlying":11257,"Ġeat":11258,"ĠCG":11259,"ĠCurt":11260,"adstone":11261,"urre":11262,"ĠMile":11263,"ĠMole":11264,"ĠImb":11265,"olves":11266,"Ġstingray":11267,"ĠHit":11268,"ĠHip":11269,"Ġbypass":11270,"ĠRag":11271,"Ġalg":11272,"ĠFord":11273,"ĠFull":11274,"ĠDa":11275,"ĠDwight":11276,"ĠWed":11277,"ĠWisc":11278,"Ġitem":11279,"Ġrushed":11280,"rix":11281,"ĠEP":11282,"ĠEarn":11283,"illas":11284,"aping":11285,"Ġplag":11286,"anther":11287,"oceratops":11288,"ĠUygh":11289,"ĠChan":11290,"Ġcomprehens":11291,"Ġcomputers":11292,"Ġheritage":11293,"ĠVist":11294,"achment":11295,"Ġenroll":11296,"ĠYang":11297,"Ġnep":11298,"Ġeval":11299,"Ġweigh":11300,"Ġremind":11301,"athy":11302,"onsin":11303,"Ġcolors":11304,"ĠCommer":11305,"Ġreleasing":11306,"Ġmovies":11307,"Ġretail":11308,"Ġsubord":11309,"Ġpresbyter":11310,"Ġpopulated":11311,"ĠBrigades":11312,"Ġ172":11313,"Ġ154":11314,"Ġcontinu":11315,"Ġexpand":11316,"Ġwarfare":11317,"Ġimposed":11318,"ĠConstitution":11319,"ĠBegin":11320,"Ġadvances":11321,"Ġgoverned":11322,"Ġvaries":11323,"Ġvariable":11324,"aiman":11325,"Ġhalted":11326,"Ġdemanded":11327,"adys":11328,"Ġexperts":11329,"Ġrealised":11330,"Ġcompetitive":11331,"ĠXook":11332,"ĠXbox":11333,"ĠAssy":11334,"ĠEdge":11335,"Ġafford":11336,"ĠAircraft":11337,"aulted":11338,"Ġlimestone":11339,"ĠGladstone":11340,"Ġ1854":11341,"Ġ1856":11342,"Ġswit":11343,"Ġmorph":11344,"Ġimprovements":11345,"ĠMonth":11346,"Ġelectrical":11347,"ĠRepresent":11348,"Ġcuts":11349,"ĠMedal":11350,"Ġdefender":11351,"Ġcyclones":11352,"Ġ1848":11353,"ĠMontfort":11354,"ĠFilming":11355,"Ġparticipants":11356,"Ġcaliber":11357,"ĠOfficial":11358,"ĠFIT":11359,"Ġlearns":11360,"Ġsuspect":11361,"Ġoptions":11362,"Ġlandscape":11363,"Ġweakening":11364,"Ġofferings":11365,"ĠJulian":11366,"Ġalternate":11367,"Ġwalks":11368,"ĠMalays":11369,"Ġgrasses":11370,"ĠDefence":11371,"Ġsacrif":11372,"Ġuniversal":11373,"ĠDestroy":11374,"ĠSenate":11375,"Ġspotted":11376,"ĠAppe":11377,"Ġcollaborated":11378,"Ġsensitive":11379,"Ġextends":11380,"ĠPete":11381,"ĠGarden":11382,"Ġchallenges":11383,"ĠLiberal":11384,"ĠGabri":11385,"Ġinducted":11386,"Ġmicroscop":11387,"Ġhighlighted":11388,"Ġpetition":11389,"Ġlinear":11390,"Ġimmigrants":11391,"Ġcabinet":11392,"Ġlicens":11393,"ĠNapole":11394,"Ġgender":11395,"Ġsurprised":11396,"ĠTechnology":11397,"Ġhypothes":11398,"ĠNicholas":11399,"Ġhelicopter":11400,"Ġrelieved":11401,"ĠCombat":11402,"Ġdeliberately":11403,"Ġvulner":11404,"ĠPfaster":11405,"Ġdisbanded":11406,"ĠPakistan":11407,"ĠATP":11408,"Ġsupreme":11409,"ĠWitchcraft":11410,"Ġtherapy":11411,"ĠKÅįsaku":11412,"ĠBÃ¬nh":11413,"Æ°Æ¡ng":11414,"Ġacoustic":11415,"Ġdecommissioned":11416,"ĠImbudo":11417,"ĠWisconsin":11418,"ĠEarnest":11419,"ĠBeginning":11420,"ais":11421,"aft":11422,"bits":11423,"dale":11424,"gom":11425,"halsa":11426,"lroy":11427,"pa":11428,"uerto":11429,"Ã±":11430,"įmar":11431,"Ġtal":11432,"Ġtawny":11433,"Ġsweet":11434,"atra":11435,"athetic":11436,"Ġcattle":11437,"itic":11438,"itter":11439,"ituals":11440,"Ġfier":11441,"Ġben":11442,"anelli":11443,"anthodon":11444,"aliation":11445,"Ġped":11446,"Ġpse":11447,"Ġpush":11448,"Ġmentions":11449,"rooms":11450,"Ġdancing":11451,"ĠTan":11452,"ĠTell":11453,"ĠTotal":11454,"ĠAh":11455,"ĠAut":11456,"ĠAction":11457,"ĠSite":11458,"ĠSaf":11459,"ĠSMS":11460,"Ġlie":11461,"Ġnat":11462,"amoul":11463,"ĠMembers":11464,"ĠMhalsa":11465,"Ġgri":11466,"ĠBelt":11467,"Ġaside":11468,"ĠHarris":11469,"uskh":11470,"etheless":11471,"Ġisn":11472,"ĠPuerto":11473,"ĠRI":11474,"ĠRav":11475,"ĠFa":11476,"Ġconvey":11477,"ulating":11478,"ĠWorth":11479,"ĠNuskh":11480,"ĠGy":11481,"ags":11482,"agers":11483,"Ġdeer":11484,"Ġdealt":11485,"Ġrape":11486,"Ġrush":11487,"Ġrituals":11488,"ifest":11489,"iller":11490,"ĠIns":11491,"ework":11492,"ocese":11493,"Ġshock":11494,"Ġyd":11495,"ĠKam":11496,"ĠKick":11497,"ĠKatherine":11498,"iper":11499,"ĠStand":11500,"ĠStakes":11501,"ĠStrapping":11502,"ounced":11503,"Ġintact":11504,"ĠHein":11505,"Ġreconc":11506,"Ġperception":11507,"Ġboil":11508,"lando":11509,"Ġplayable":11510,"ricus":11511,"Ġdisgu":11512,"Ġaftermath":11513,"Ġenabled":11514,"Ġoutstanding":11515,"Ġknee":11516,"ĠEnergy":11517,"ĠDead":11518,"Ġapartment":11519,"Ġpron":11520,"Ġspeculated":11521,"Ġquit":11522,"Ġquiet":11523,"Ġsubtropical":11524,"ĠLevel":11525,"hesh":11526,"Ġaddressed":11527,"Ġdescent":11528,"Ġinvaded":11529,"Ġtransformed":11530,"ĠBrun":11531,"ĠScout":11532,"Ġ115":11533,"Ġmilk":11534,"Ġadventures":11535,"Ġmetric":11536,"Ġheading":11537,"Ġguerr":11538,"ashire":11539,"Ġpromise":11540,"Ġextant":11541,"ĠTrinity":11542,"ĠGuinness":11543,"Ġarrives":11544,"Ġtriang":11545,"ĠOrlando":11546,"Ġtempo":11547,"Ġcommunist":11548,"Ġcompeted":11549,"Ġdeclaring":11550,"ĠParanthodon":11551,"ometric":11552,"Ġpressed":11553,"Ġdivines":11554,"Ġcasting":11555,"ĠBlackie":11556,"Ġlawyer":11557,"Ġ1894":11558,"Ġ1898":11559,"ĠMoro":11560,"Ġcommentary":11561,"Ġcasem":11562,"Ġ1851":11563,"Ġrecognize":11564,"Ġestimate":11565,"Ġ1881":11566,"ĠBergen":11567,"Ġfloods":11568,"Ġ1832":11569,"ĠVargas":11570,"ĠGreatest":11571,"ĠNote":11572,"ĠMontgom":11573,"ĠÃįmar":11574,"Ġantiqu":11575,"ĠTerry":11576,"Ġexamined":11577,"ĠLaure":11578,"Ġflowers":11579,"Ġpaying":11580,"Ġlabour":11581,"ĠMahesh":11582,"Ġportrayal":11583,"ĠSurv":11584,"ĠHumpty":11585,"Ġattending":11586,"ĠColonies":11587,"Ġcrowds":11588,"ĠTodd":11589,"ĠReviews":11590,"Ġqualifying":11591,"Ġexhibited":11592,"Ġthirteen":11593,"Ġdissipating":11594,"ĠFerd":11595,"ĠRhode":11596,"ĠApart":11597,"Ġconnects":11598,"ĠPoet":11599,"Ġcomprising":11600,"ĠNazaire":11601,"ĠDerby":11602,"ĠKeys":11603,"Ġ737":11604,"Ġconcerning":11605,"ĠRetrieved":11606,"Ġaltarpiece":11607,"ĠGabbar":11608,"ĠTraff":11609,"ĠBrazilian":11610,"ĠGanganelli":11611,"ĠDarwin":11612,"ĠWallace":11613,"Ġvolunteers":11614,"ĠKatia":11615,"ĠPersonal":11616,"Ġnickn":11617,"Ġrecreational":11618,"Ġpreceding":11619,"ĠLancashire":11620,"Ġicon":11621,"Ġdiverse":11622,"escope":11623,"ĠPAVN":11624,"Ġinterpretation":11625,"Ġoverwhelming":11626,"ĠRajamoul":11627,"ĠSidon":11628,"Ġreservoirs":11629,"Ġgusts":11630,"Ġcategories":11631,"Ġguidance":11632,"Ġrebellion":11633,"ĠTaxonomy":11634,"Ġliquid":11635,"ĠMcElroy":11636,"Ġhygromet":11637,"Ġinternationally":11638,"Ġmetallic":11639,"ĠÂµm":11640,"ĠGuinea":11641,"ĠBracknell":11642,"ĠNuskhuri":11643,"ĠMontgomery":11644,"ĠRajamouli":11645,"Ġhygrometricus":11646,"Ar":11647,"ED":11648,"aels":11649,"cially":11650,"found":11651,"gro":11652,"hum":11653,"ji":11654,"pat":11655,"ĠÎ":11656,"Ġarose":11657,"Ġthesis":11658,"reated":11659,"Ġwished":11660,"Ġwonder":11661,"unning":11662,"atters":11663,"Ġcam":11664,"Ġcakes":11665,"Ġfart":11666,"Ġbold":11667,"arius":11668,"Ġmild":11669,"Ġdad":11670,"Ġhockey":11671,"ĠSull":11672,"ĠSax":11673,"ĠSNL":11674,"oma":11675,"Ġnose":11676,"aman":11677,"ĠCN":11678,"ĠCadmium":11679,"elago":11680,"adic":11681,"lyn":11682,"ĠMes":11683,"ĠMoh":11684,"Ġgra":11685,"Ġgentle":11686,"ivan":11687,"ĠBou":11688,"ĠBased":11689,"ĠBoot":11690,"igon":11691,"usade":11692,"ayne":11693,"Ġalignment":11694,"ĠFat":11695,"ĠDE":11696,"ĠDÃŃ":11697,"ĠWell":11698,"andom":11699,"ĠNEA":11700,"ĠGross":11701,"ĠLiz":11702,"ĠLyn":11703,"ĠLoren":11704,"ĠdeGrom":11705,"Ġveloc":11706,"Ġchanc":11707,"season":11708,"Ġshall":11709,"Ġleagues":11710,"ovil":11711,"ource":11712,"ipelago":11713,"ption":11714,"ĠChop":11715,"Ġwheel":11716,"Ġrot":11717,"Ġintr":11718,"ĠVishn":11719,"Ġclar":11720,"Ġabn":11721,"irect":11722,"Ġages":11723,"Ġdesper":11724,"Ġdislik":11725,"Ġteleph":11726,"ĠYam":11727,"Ġpref":11728,"Ġsecular":11729,"ĠAnaly":11730,"Ġconservative":11731,"Ġasserted":11732,"Ġincurs":11733,"Ġindirect":11734,"Ġcoat":11735,"Ġcoaster":11736,"Ġentert":11737,"tene":11738,"Ġ1200":11739,"Ġinvitation":11740,"Ġtransits":11741,"Ġtranscription":11742,"ĠScand":11743,"Ġministers":11744,"Ġ111":11745,"Ġbrings":11746,"Ġthoughts":11747,"Ġdiscont":11748,"ylogen":11749,"Ġimpressive":11750,"eping":11751,"Ġinsisted":11752,"ĠBeth":11753,"ĠColl":11754,"ĠForb":11755,"Ġbatting":11756,"Ã©d":11757,"Ġmarched":11758,"Ġpositioned":11759,"ĠTherefore":11760,"Ġorganic":11761,"Ġrealistic":11762,"ĠBrother":11763,"Ġdebt":11764,"ĠParker":11765,"Ġstatue":11766,"Ġinvolve":11767,"Ġwanting":11768,"Ġfarming":11769,"Ġfemin":11770,"Ġordinary":11771,"Ġlights":11772,"Ġgenres":11773,"Ġdestroying":11774,"ĠBlacks":11775,"Ġtourists":11776,"Ġprotesters":11777,"Ġradius":11778,"Ġskill":11779,"Ġtravelling":11780,"Ġ1891":11781,"Ġsword":11782,"ĠSword":11783,"Ġcommerce":11784,"Ġcommercially":11785,"ĠMontene":11786,"Ġ1882":11787,"Ġcircular":11788,"ĠCrim":11789,"Ġhosts":11790,"Ġdrawings":11791,"Ġ1865":11792,"ĠDays":11793,"ĠMedieval":11794,"Ġresponses":11795,"Ġhonours":11796,"Ġinterviews":11797,"Ġinterviewed":11798,"Ġzones":11799,"Ġloop":11800,"Ġeducational":11801,"Ġoccupy":11802,"ĠTerrorist":11803,"Ġensemble":11804,"Ġlayers":11805,"ĠFinn":11806,"Ġscripts":11807,"ĠQuinn":11808,"Ġpaths":11809,"Ġconfirm":11810,"Ġprinciple":11811,"Ġangry":11812,"Ġelevated":11813,"Ġeleventh":11814,"Ġreactor":11815,"Ġtorpedoes":11816,"Ġratio":11817,"Ġweakness":11818,"Ġjumping":11819,"Ġscholarship":11820,"Ġmounts":11821,"Ġhonorary":11822,"ĠDenmark":11823,"ĠLlosa":11824,"Ġeliminate":11825,"Ġwitnesses":11826,"Ġpulp":11827,"ĠMariah":11828,"Ġplatforms":11829,"Ġdecrease":11830,"ĠStewie":11831,"Ġaccomplished":11832,"Ġrevolutionary":11833,"ĠChronicle":11834,"ĠRaymond":11835,"ĠYeovil":11836,"Ġorchestra":11837,"Ġteachings":11838,"ĠGibson":11839,"Ġdinosaurs":11840,"Ġloyal":11841,"Ġacknowledged":11842,"ĠCobra":11843,"rosaurus":11844,"Ġastronomers":11845,"ĠMcLaren":11846,"Ġreverse":11847,"urrently":11848,"Ġsupernatural":11849,"Ġreversed":11850,"Ġbattlecruisers":11851,"Ġinhabited":11852,"Ġcoffee":11853,"ĠSymph":11854,"Ġsemifinals":11855,"Ġpione":11856,"Ġadvertisements":11857,"ĠJenkins":11858,"ĠFifth":11859,"ĠBattery":11860,"Ġhampered":11861,"ĠAlgernon":11862,"Ġwreck":11863,"Ġsituations":11864,"ĠRafael":11865,"apolis":11866,"ĠFastra":11867,"Ġunexpected":11868,"Ġgraphic":11869,"ĠSullivan":11870,"ĠDÃŃaz":11871,"Ġvelocity":11872,"aude":11873,"hin":11874,"pack":11875,"rino":11876,"zes":11877,"Ġtent":11878,"Ġaided":11879,"inisc":11880,"Ġtheore":11881,"onation":11882,"Ġcu":11883,"Ġcir":11884,"Ġcens":11885,"Ġcats":11886,"Ġfil":11887,"Ġfiled":11888,"isons":11889,"Ġborrowed":11890,"Ġpuma":11891,"asco":11892,"Ġmast":11893,"Ġdawn":11894,"ĠTai":11895,"Ġthrown":11896,"entine":11897,"ĠSyn":11898,"stable":11899,"stappen":11900,"Ġeagle":11901,"eld":11902,"adh":11903,"Ġbeak":11904,"ĠMail":11905,"Ġgover":11906,"Ġghost":11907,"Ġgospel":11908,"Ġforg":11909,"ivation":11910,"idel":11911,"igible":11912,"thic":11913,"Ġstaged":11914,"Ġstabil":11915,"Ġstorage":11916,"ĠHom":11917,"ĠHem":11918,"ĠHosp":11919,"oto":11920,"Ġwhatever":11921,"ĠDawn":11922,"Ġconce":11923,"Ġconso":11924,"Ġconform":11925,"Ġconceived":11926,"emen":11927,"ĠWu":11928,"osph":11929,"ĠNi":11930,"ĠLear":11931,"odium":11932,"riors":11933,"istical":11934,"Ġvint":11935,"illes":11936,"ĠInside":11937,"Ġexterior":11938,"ĠKah":11939,"ĠKarl":11940,"ĠStaff":11941,"ostere":11942,"ĠChang":11943,"Ġunstable":11944,"ĠVoyage":11945,"Ġdesired":11946,"Ġspelling":11947,"Ġspokes":11948,"Ġcentres":11949,"ĠSean":11950,"tsburgh":11951,"Ġfeared":11952,"Ġreminisc":11953,"ĠArcher":11954,"Ġconspir":11955,"ĠNewport":11956,"Ġmusc":11957,"Ġaccus":11958,"Ġfounding":11959,"Ġblamed":11960,"ĠJohann":11961,"Ġstudios":11962,"ĠAftermath":11963,"Ġdeveloper":11964,"Ġdevelopments":11965,"Ġ151":11966,"ĠIndies":11967,"Ġterr":11968,"Ġdeputy":11969,"ylostere":11970,"Ġefficient":11971,"Ġsixty":11972,"ĠBeing":11973,"Ġwinners":11974,"Ġadvocated":11975,"erves":11976,"ĠNorthumber":11977,"mede":11978,"ĠJanet":11979,"Ġlasting":11980,"ĠFez":11981,"Ġconfused":11982,"Ġprogression":11983,"Ġslave":11984,"Ġmarkets":11985,"Ġphosph":11986,"ĠSpir":11987,"ĠOrd":11988,"Ġdebated":11989,"Ġantagon":11990,"Ġtwins":11991,"brush":11992,"alypt":11993,"Ġelite":11994,"Ġdeclaration":11995,"ĠAmylostere":11996,"ĠEdition":11997,"ĠDavies":11998,"Ġradar":11999,"Ġradical":12000,"Ġdiscovers":12001,"Ġ1896":12002,"Ġentirety":12003,"ecutive":12004,"ĠGlass":12005,"Ġcampaigns":12006,"Ġcommentators":12007,"Ġidentical":12008,"Ġagrees":12009,"ĠExeter":12010,"ĠExecutive":12011,"Ġlacks":12012,"Ġcease":12013,"Ġ1862":12014,"ĠThompson":12015,"Ġachievement":12016,"Ġcostumes":12017,"ĠMaryang":12018,"Ġexciting":12019,"castle":12020,"ĠMedical":12021,"Ġstaying":12022,"Ġbills":12023,"Ġpainter":12024,"Ġpersisted":12025,"Ġopens":12026,"Ġgraduated":12027,"iffs":12028,"Ġparticipation":12029,"Ġmemoir":12030,"ĠArtist":12031,"ĠArtillery":12032,"ĠVerstappen":12033,"Ġfrequency":12034,"ĠGoat":12035,"Ġcoined":12036,"Ġfriendship":12037,"Ġfocuses":12038,"Ġdeeply":12039,"Ġborders":12040,"Ġbombers":12041,"Ġcounteratt":12042,"Ġlogs":12043,"Ġjudo":12044,"Ġmurd":12045,"ĠBobby":12046,"ĠJamie":12047,"Ġemotion":12048,"Ġathletics":12049,"Ġvocalist":12050,"Ġexhibit":12051,"Ġmessages":12052,"Ġprinting":12053,"Ġemphasized":12054,"Ġbelonged":12055,"Ġtargeted":12056,"Ġfungi":12057,"bourne":12058,"ĠAnnals":12059,"ĠPopM":12060,"ĠAttack":12061,"Ġfears":12062,"Ġrestaurants":12063,"ĠAthletics":12064,"ĠShaolin":12065,"Ġcameras":12066,"Ġproposals":12067,"Ġrendition":12068,"ĠBruins":12069,"Ġapplications":12070,"Ġsubmarines":12071,"Ġplumage":12072,"Ġsailors":12073,"ĠFreedom":12074,"Ġcorresponding":12075,"Ġawareness":12076,"Ġaffecting":12077,"Ġdrugs":12078,"Ġenlisted":12079,"Ġfairly":12080,"ĠCampbeltown":12081,"Ġskelet":12082,"Ġgathering":12083,"Ġmutual":12084,"Ġgallery":12085,"ĠWolfpack":12086,"Ġpatrols":12087,"ĠDurham":12088,"ipedia":12089,"Ġrecruited":12090,"Ġmerchant":12091,"Ġfrigates":12092,"ĠMagdalen":12093,"ĠBehind":12094,"Ġstere":12095,"Ġbinding":12096,"Ġaggregate":12097,"Ġenthusi":12098,"ĠPrivate":12099,"ĠAdministration":12100,"Ġbonus":12101,"Ġadministered":12102,"Ġdispatched":12103,"ĠWikipedia":12104,"ĠMcNichol":12105,"Ġcomprehensive":12106,"Ġnephew":12107,"Ġgoverning":12108,"Ġconsole":12109,"Ġreminiscent":12110,"ĠNorthumberland":12111,"bre":12112,"case":12113,"coh":12114,"chen":12115,"even":12116,"othy":12117,"pike":12118,"point":12119,"rist":12120,"xim":12121,"zu":12122,"ãĥ":12123,"Ġtennis":12124,"herent":12125,"inster":12126,"Ġsaving":12127,"Ġoribi":12128,"Ġcable":12129,"Ġbron":12130,"Ġboss":12131,"Ġinver":12132,"aland":12133,"Ġpose":12134,"Ġharsh":12135,"ĠTuck":12136,"ĠTzu":12137,"ĠAway":12138,"ĠSri":12139,"Ġlig":12140,"Ġnice":12141,"ĠCemetery":12142,"ĠMall":12143,"Ġforb":12144,"olver":12145,"ĠBa":12146,"ighed":12147,"ĠHad":12148,"ĠHakim":12149,"etown":12150,"ĠPok":12151,"ĠPink":12152,"ĠRen":12153,"ĠRNA":12154,"Ġalcoh":12155,"ĠFear":12156,"ĠDumpt":12157,"Ġconven":12158,"Ġconclus":12159,"ĠWave":12160,"ĠWells":12161,"ĠGen":12162,"ĠGuth":12163,"ĠGao":12164,"ested":12165,"ĠOt":12166,"ĠEug":12167,"ĠECU":12168,"Ġproxim":12169,"resco":12170,"oping":12171,"Ġoral":12172,"Ġchances":12173,"Ġexile":12174,"ĠKub":12175,"ovac":12176,"asted":12177,"ĠStyle":12178,"geon":12179,"ounters":12180,"Ġbutt":12181,"Ġrout":12182,"Ġscope":12183,"Ġscores":12184,"Ġdisabled":12185,"Ġjur":12186,"Ġovercome":12187,"izong":12188,"iban":12189,"Ġoutd":12190,"Ġnearest":12191,"Ġalliance":12192,"issart":12193,"Ġcanons":12194,"icken":12195,"Ġintervention":12196,"Ġpray":12197,"Ġflown":12198,"Ġincred":12199,"ĠLeinster":12200,"Ġdoors":12201,"Ġgram":12202,"Ġelephant":12203,"Ġ108":12204,"Ġdecis":12205,"Ġdecoration":12206,"phy":12207,"aja":12208,"Ġ167":12209,"ĠShaw":12210,"Ġmining":12211,"Ġreporter":12212,"ĠBloom":12213,"ĠCommodore":12214,"ĠClay":12215,"ĠNorthwest":12216,"ĠAdri":12217,"Ġconfidence":12218,"Ġrefuses":12219,"Ġexplaining":12220,"Ġexplored":12221,"Ġbread":12222,"Ġbreeds":12223,"Ġhandle":12224,"Ġhandling":12225,"ĠBoat":12226,"Ġsuggestion":12227,"Ġcrusad":12228,"Ġdebris":12229,"Ġtotally":12230,"ĠMint":12231,"Ġlessons":12232,"Ġstatues":12233,"ĠBaron":12234,"ĠParachute":12235,"Ġeighteen":12236,"Ġaffair":12237,"adesh":12238,"Ġintroduces":12239,"Ġhumanity":12240,"Ġblacks":12241,"ĠRegiments":12242,"Ġcorrid":12243,"Ġmixing":12244,"Ġ1893":12245,"Ġ1899":12246,"Ġsummar":12247,"Ġcoastline":12248,"ĠCareer":12249,"ĠSecurity":12250,"ĠMoritz":12251,"Ġknows":12252,"ÃŃn":12253,"ĠOthers":12254,"Ġestimates":12255,"Ġsexually":12256,"Ġarguments":12257,"Ġacceptance":12258,"Ġrounded":12259,"Ġarmoured":12260,"Ġencounters":12261,"ĠSyria":12262,"Ġ1874":12263,"Ġcontracts":12264,"boro":12265,"Ġsubjected":12266,"Ġwoodland":12267,"Ġpoetic":12268,"Ġguitarist":12269,"Ġfocusing":12270,"unta":12271,"Ġultimate":12272,"ĠJoan":12273,"ĠSoviets":12274,"Ġattendance":12275,"Ġsymbols":12276,"Ġdescriptions":12277,"Ġdemonstration":12278,"ĠEngineers":12279,"Ġholes":12280,"ĠJoshua":12281,"ĠMDOT":12282,"ĠBrethren":12283,"ĠFerr":12284,"Ġextraord":12285,"Ġlabeled":12286,"metrical":12287,"Ġromance":12288,"Ġintelligent":12289,"Ġoxide":12290,"Ġfoxes":12291,"ĠCarlos":12292,"ĠClassic":12293,"Ġexpeditions":12294,"Ġprompting":12295,"Ġmigration":12296,"ĠUNES":12297,"Ġrendered":12298,"Ġwitnessed":12299,"Ġmistaken":12300,"ĠEllis":12301,"ĠMurphy":12302,"Ġrifles":12303,"ĠIngram":12304,"ĠRowley":12305,"Ġexplosive":12306,"ĠGreater":12307,"Ġinstrumental":12308,"Ġexercise":12309,"ĠMarshal":12310,"Ġshelter":12311,"ĠCopia":12312,"Ġsynthesis":12313,"Ġruins":12314,"ĠSavage":12315,"Ġimplemented":12316,"Ġdeposits":12317,"Ġinteg":12318,"Ġexhaust":12319,"Ġabsolut":12320,"Ġsamples":12321,"ĠCruiser":12322,"Ġanswer":12323,"Ġincomplete":12324,"Ġoverwhelmed":12325,"ĠAldean":12326,"Ġlisteners":12327,"ĠElectronic":12328,"Ġabundant":12329,"Ġabundance":12330,"Ġframework":12331,"ĠLithuan":12332,"Ġobstacles":12333,"Ġplayoffs":12334,"Ġturbines":12335,"Ġfantasy":12336,"ĠUniversal":12337,"Ġfertil":12338,"ĠUnderne":12339,"oplasm":12340,"ĠImportance":12341,"ĠHairan":12342,"ĠIAAF":12343,"ĠLÃ¼tz":12344,"ĠPuppet":12345,"ĠBhairava":12346,"Ġsanctuary":12347,"ĠCurtis":12348,"ĠChanology":12349,"ĠVistara":12350,"ĠNapoleon":12351,"Ġnaturally":12352,"Ġnickname":12353,"ĠDumpty":12354,"ĠGuthrie":12355,"ĠGaozong":12356,"Ġproximity":12357,"ĠUNESCO":12358,"ĠUnderneath":12359,"ĠLÃ¼tzow":12360,"NZ":12361,"cena":12362,"fire":12363,"jan":12364,"kes":12365,"lings":12366,"uania":12367,"vÄģda":12368,"wall":12369,"á¹":12370,"ĺī":12371,"Ġtel":12372,"Ġtales":12373,"inand":12374,"inich":12375,"rez":12376,"Ġsin":12377,"aters":12378,"oric":12379,"Ġcyl":12380,"itudes":12381,"Ġfed":12382,"isations":12383,"Ġbin":12384,"alph":12385,"Ġpill":12386,"Ġmere":12387,"Ġmaps":12388,"Ġdining":12389,"leans":12390,"ĠTalk":12391,"ĠAx":12392,"ĠANZ":12393,"ĠSEC":12394,"sts":12395,"Ġnas":12396,"Ġnic":12397,"ĠCall":12398,"acements":12399,"ĠMets":12400,"ĠITV":12401,"ĠBes":12402,"Ġstress":12403,"Ġstalk":12404,"ĠHave":12405,"ĠHub":12406,"ĠHoll":12407,"ĠPic":12408,"ĠPesh":12409,"ĠRalph":12410,"ĠFountain":12411,"ĠFlying":12412,"ĠDiamond":12413,"ulates":12414,"ĠWas":12415,"oso":12416,"ĠNF":12417,"ĠNOK":12418,"ĠGene":12419,"ĠLiam":12420,"Ġseated":12421,"umble":12422,"ĠOke":12423,"ĠIngr":12424,"opp":12425,"Ġorange":12426,"arting":12427,"Ġchord":12428,"Ġexchang":12429,"Ġexternal":12430,"Ġâĺī":12431,"ocy":12432,"Ġshaft":12433,"ĠkW":12434,"ĠKaiman":12435,"oves":12436,"ĠStat":12437,"ĠStones":12438,"ĠStarting":12439,"clamation":12440,"Ġuncom":12441,"Ġherb":12442,"ĠThan":12443,"ĠThail":12444,"ught":12445,"Ġmane":12446,"Ġjam":12447,"Ġspell":12448,"Ġspoken":12449,"ressions":12450,"ĠUnit":12451,"Ġremake":12452,"ĠAny":12453,"Ġrelied":12454,"ĠMarily":12455,"ĠNewfound":12456,"Ġretreated":12457,"Ġsuburb":12458,"ĠLeo":12459,"obee":12460,"Ġcooking":12461,"Ġ102":12462,"Ġdeciding":12463,"Ġ129":12464,"Ġinvent":12465,"itsu":12466,"Ġtransmitted":12467,"Ġmonster":12468,"Ġ156":12469,"ĠIndu":12470,"Ġexpanding":12471,"ĠWarrior":12472,"Ġrepet":12473,"Ġprovision":12474,"aze":12475,"Ġpassenger":12476,"Ġadvent":12477,"Ġdamages":12478,"ĠCarroll":12479,"Ġpointing":12480,"Ġeditions":12481,"ĠEuropium":12482,"pedition":12483,"Ġportraits":12484,"Ġconfron":12485,"ĠGrant":12486,"Ġtrium":12487,"Ġorganisations":12488,"Ġslaves":12489,"Ġphylogen":12490,"ĠFlair":12491,"ĠOrleans":12492,"arnation":12493,"Ġjoins":12494,"Ġcompeting":12495,"ĠPeron":12496,"ĠGeneration":12497,"Ġlesser":12498,"Ġcurve":12499,"Ġtroop":12500,"ĠPalmer":12501,"Ġ1892":12502,"Ġlikewise":12503,"Ġerror":12504,"Ġassociate":12505,"Ġ1859":12506,"ĠExpedition":12507,"Ġswallow":12508,"Ġaveraged":12509,"Ġseparately":12510,"Ġimproving":12511,"Ġspecialized":12512,"ĠMonica":12513,"Ġmaternal":12514,"ealous":12515,"ĠMarket":12516,"Ġmerc":12517,"licted":12518,"Ġdonations":12519,"Ġstopping":12520,"ĠHelen":12521,"ĠNotable":12522,"ĠÃī":12523,"Ġcrucial":12524,"ĠJerry":12525,"Ġpreventing":12526,"Ġscreenplay":12527,"Ġdispersed":12528,"ĠTurkey":12529,"Ġcontempor":12530,"uki":12531,"Ġuncle":12532,"Ġuncover":12533,"Ġconsiderably":12534,"Ġsuspected":12535,"Ġkinds":12536,"ĠTwins":12537,"ĠArchbishop":12538,"ĠRobyn":12539,"Ġintersections":12540,"Ġprinciples":12541,"ĠOutside":12542,"Ġlifted":12543,"ĠJulio":12544,"ÄģdvÄģda":12545,"umbered":12546,"ĠConfession":12547,"ĠJosh":12548,"Ġprincess":12549,"ĠHalf":12550,"Ġfunctional":12551,"Ġjournalists":12552,"ĠConstantin":12553,"ĠLoch":12554,"Ġremixes":12555,"Ġminerals":12556,"echobee":12557,"ĠIndustrial":12558,"Ġstrikeouts":12559,"Ġimagination":12560,"Ġphilosoph":12561,"Ġreflects":12562,"ĠDoctor":12563,"Ġchallenged":12564,"ĠLiberty":12565,"Ġfavourite":12566,"ĠBasement":12567,"Ġdistinguish":12568,"ĠAdventures":12569,"Ġsegments":12570,"ĠJudith":12571,"ĠUrban":12572,"Ġinstrumentation":12573,"ĠSubsequently":12574,"Ġdisappear":12575,"ĠDomnall":12576,"Ġconsequence":12577,"ĠBiography":12578,"Ġstreams":12579,"Ġbesie":12580,"ĠSaigon":12581,"ĠCruise":12582,"ĠMuham":12583,"Ġpersuaded":12584,"Ġgarden":12585,"ĠLithuania":12586,"Ġmammal":12587,"ĠBuddhist":12588,"Ġdrafted":12589,"Ġsummary":12590,"ĠObserver":12591,"Ġbarely":12592,"Ġphenomenon":12593,"Ġnineteenth":12594,"ĠRapids":12595,"Ġexcellent":12596,"Ġecho":12597,"ĠRebbie":12598,"Ġcrafts":12599,"Ġredesign":12600,"Ġhorizont":12601,"tymology":12602,"ĠOfficer":12603,"ĠCadets":12604,"isphere":12605,"ĠFerdinand":12606,"ĠSaxon":12607,"ĠLorenzo":12608,"ĠCrimson":12609,"ĠANZAC":12610,"ĠPeshkin":12611,"ĠOkeechobee":12612,"ĠIngrid":12613,"ĠKaimanawa":12614,"ĠThailand":12615,"ĠMarilyn":12616,"ĠNewfoundland":12617,"BO":12618,"SU":12619,"cor":12620,"kamed":12621,"lore":12622,"mem":12623,"no":12624,"nance":12625,"time":12626,"Ġties":12627,"Ġtong":12628,"Ġtune":12629,"inued":12630,"onso":12631,"reation":12632,"Ġstern":12633,"Ġsink":12634,"unc":12635,"ndolen":12636,"Ġca":12637,"itall":12638,"itars":12639,"ester":12640,"aro":12641,"ali":12642,"Ġmos":12643,"icism":12644,"Ġdign":12645,"Ġdug":12646,"Ġdanc":12647,"Ġdads":12648,"Ġhide":12649,"Ġreass":12650,"Ġthro":12651,"Ġthread":12652,"ĠAL":12653,"ĠAires":12654,"ila":12655,"iland":12656,"ilogy":12657,"ĠSport":12658,"ĠSpect":12659,"ĠSuez":12660,"oment":12661,"Ġecl":12662,"Ġnit":12663,"Ġnaut":12664,"ĠCry":12665,"ĠChemical":12666,"elope":12667,"Ġwaste":12668,"ĠMaid":12669,"ĠIR":12670,"Ġgains":12671,"Ġforget":12672,"ivorous":12673,"ĠBod":12674,"ĠBour":12675,"ĠBuen":12676,"ira":12677,"Ġstro":12678,"ĠHond":12679,"ĠPion":12680,"ĠPast":12681,"ĠPresent":12682,"ĠRat":12683,"ĠRook":12684,"ĠROK":12685,"ĠFig":12686,"ĠFund":12687,"ĠFlet":12688,"ĠFisher":12689,"ĠDal":12690,"ĠDoc":12691,"emark":12692,"ĠWard":12693,"osely":12694,"Ġanger":12695,"ĠGwe":12696,"ĠLin":12697,"ĠLim":12698,"Ġhence":12699,"estock":12700,"Ġrus":12701,"ĠEaster":12702,"ĠEps":12703,"Ġprobe":12704,"Ġvault":12705,"rescent":12706,"ĠInformation":12707,"opy":12708,"Ġchase":12709,"Ġchann":12710,"berry":12711,"ocation":12712,"Ġkiss":12713,"ĠKer":12714,"astian":12715,"ĠStansfield":12716,"clair":12717,"arya":12718,"ĠChile":12719,"Ġcomparing":12720,"itional":12721,"Ġclimb":12722,"Ġresolved":12723,"ĠThing":12724,"Ġagencies":12725,"ulty":12726,"Ġtends":12727,"Ġupr":12728,"anga":12729,"Ġspr":12730,"ĠYet":12731,"Ġsecuring":12732,"Ġremote":12733,"ĠAnsel":12734,"Ġrelay":12735,"Ġrelax":12736,"ugs":12737,"ĠComics":12738,"ĠComair":12739,"fting":12740,"ĠDeal":12741,"Ġregister":12742,"Ġincons":12743,"ĠLead":12744,"Ġgrace":12745,"Ġthereby":12746,"Ġsupplied":12747,"Ġsurve":12748,"phae":12749,"Ġ126":12750,"airn":12751,"full":12752,"Ġmillions":12753,"Ġbranches":12754,"ĠIndolence":12755,"Ġterrorist":12756,"ĠMayor":12757,"Ġdistort":12758,"Ġinfected":12759,"ĠBeat":12760,"Ġcharacterised":12761,"Ġmodes":12762,"Ġguitars":12763,"ĠTrade":12764,"Ġexplan":12765,"ĠManor":12766,"Ġdemanding":12767,"Ġdemographic":12768,"ĠBoom":12769,"Ġtraders":12770,"Ġcontrace":12771,"Ġeveryday":12772,"Ġparade":12773,"Ġdelight":12774,"Ġsitcom":12775,"Ġsolita":12776,"ĠEdd":12777,"ambia":12778,"Ġhumanitarian":12779,"ĠCharan":12780,"Ġconvict":12781,"Ġvillain":12782,"ogns":12783,"Ġsummon":12784,"restrial":12785,"Ġfights":12786,"ĠMonument":12787,"Ġ1888":12788,"ĠBerg":12789,"ĠBerk":12790,"Ġceiling":12791,"Ġ355":12792,"Ġ1863":12793,"Ġachievements":12794,"ĠCommandments":12795,"Ġ1877":12796,"ĠCapital":12797,"Ġsometime":12798,"Ġ1836":12799,"Ġbreakdown":12800,"ĠEmma":12801,"Ġfails":12802,"ĠReserve":12803,"Ġblockade":12804,"Ġdrown":12805,"toire":12806,"ĠMetall":12807,"ĠMetropolitan":12808,"ĠGothic":12809,"ĠBeyond":12810,"pani":12811,"Ġhopes":12812,"ĠFormer":12813,"Ġthrows":12814,"Ġdepends":12815,"Ġinvestigate":12816,"Ġdiseases":12817,"Ġhotels":12818,"ĠDelano":12819,"ĠCasting":12820,"Ġwitch":12821,"elligence":12822,"Ġchemistry":12823,"Ġconcentrations":12824,"Ġprecipitation":12825,"Ġincorporates":12826,"ĠConfessions":12827,"Ġharvest":12828,"Ġmechanism":12829,"Ġvenom":12830,"ĠHistorical":12831,"ĠFerry":12832,"ĠTruth":12833,"Ġneutron":12834,"Ġarticles":12835,"ĠSarah":12836,"Ġphilosopher":12837,"Ġattractive":12838,"ĠBarbara":12839,"ĠCuba":12840,"Ġ978":12841,"ĠEscape":12842,"Ġremnant":12843,"Ġreserves":12844,"Ġunsuccessfully":12845,"ĠMoving":12846,"avery":12847,"ĠArikamed":12848,"Ġcontributions":12849,"Ġdescendants":12850,"ĠLeonardo":12851,"Ġcorrespondence":12852,"Ġenlarged":12853,"Ġdownloadable":12854,"ĠMothers":12855,"Ġtributary":12856,"Ġswept":12857,"ĠDurand":12858,"ĠNicholson":12859,"Ġhelicopters":12860,"ĠIntelligence":12861,"Ġattributes":12862,"Ġmammals":12863,"Ġrumors":12864,"ĠParalympic":12865,"ĠHoriz":12866,"Ġmanufacturer":12867,"Ġfatalities":12868,"Ġlatest":12869,"Ġenzymes":12870,"Ġhemmem":12871,"Ġrecalls":12872,"ĠSinclair":12873,"ĠObservatory":12874,"Ġreopened":12875,"ĠBarnes":12876,"Ġcanceled":12877,"Ġhurd":12878,"Ġrepertoire":12879,"Ġlivestock":12880,"ĠCarty":12881,"Ġalphabet":12882,"Ġhiatus":12883,"Ġscenario":12884,"ĠFITs":12885,"Ġvulnerable":12886,"ĠVishnu":12887,"ĠScandin":12888,"ĠHospitall":12889,"Ġnautical":12890,"ĠBuenos":12891,"ĠGwendolen":12892,"Ġchannels":12893,"ĠAnselm":12894,"Ġsolitaire":12895,"ĠArikamedu":12896,"IV":12897,"cat":12898,"cos":12899,"jib":12900,"music":12901,"pets":12902,"rat":12903,"tovac":12904,"ĠÅ":12905,"Ġtension":12906,"hening":12907,"inces":12908,"erb":12909,"Ġworse":12910,"orith":12911,"Ġfest":12912,"Ġfisher":12913,"enburg":12914,"Ġbath":12915,"Ġincl":12916,"Ġpover":12917,"Ġmud":12918,"Ġmail":12919,"ĠmRNA":12920,"Ġdri":12921,"Ġdull":12922,"Ġdried":12923,"ĠTanya":12924,"ĠAw":12925,"ĠAff":12926,"ĠSac":12927,"ĠSug":12928,"ĠSquad":12929,"ĠCow":12930,"ĠCamer":12931,"eland":12932,"adi":12933,"ĠTheater":12934,"ĠMP":12935,"ĠBould":12936,"idae":12937,"iri":12938,"irate":12939,"igger":12940,"thi":12941,"Ġstump":12942,"ĠHod":12943,"ĠHoys":12944,"usa":12945,"ayana":12946,"ĠRico":12947,"ĠRush":12948,"ĠRandy":12949,"ĠFal":12950,"ĠFruit":12951,"ĠDian":12952,"ĠDraft":12953,"ĠWit":12954,"Ġanonymous":12955,"ĠLars":12956,"avian":12957,"Ġramp":12958,"ĠOcc":12959,"ĠOjib":12960,"Ġcomics":12961,"ĠEU":12962,"Ġproof":12963,"apa":12964,"abs":12965,"abad":12966,"Ġyl":12967,"oved":12968,"Ġbutter":12969,"Ġcontacted":12970,"Ġarsenal":12971,"Ġunw":12972,"Ġuncon":12973,"Ġroot":12974,"Ġrouting":12975,"ĠVis":12976,"ĠVett":12977,"Ġclad":12978,"assy":12979,"Ġreserved":12980,"Ġrespected":12981,"ĠThings":12982,"Ġboom":12983,"ĠAlph":12984,"Ġmanifest":12985,"Ġjunta":12986,"Ġenvel":12987,"Ġoutcome":12988,"Ġoutput":12989,"Ġweighed":12990,"Ġworker":12991,"Ġmeat":12992,"alsock":12993,"Ġrelating":12994,"Ġthanks":12995,"ĠEno":12996,"Ġrelevant":12997,"Ġinterception":12998,"Ġinterrupted":12999,"Ġintermediate":13000,"Ġformula":13001,"Ġflaw":13002,"Ġregulation":13003,"Ġregiments":13004,"Ġassessed":13005,"Ġambit":13006,"Ġamazing":13007,"Ġ103":13008,"tona":13009,"Ġadds":13010,"Ġblind":13011,"Ġdirections":13012,"Ġmonaster":13013,"elfth":13014,"ĠIndeed":13015,"Ġtermed":13016,"Ġrepaired":13017,"Ġprovinces":13018,"ĠConsequently":13019,"Ġcarrier":13020,"omanry":13021,"Ġmaturity":13022,"Ġsupports":13023,"Ġdamaging":13024,"Ġstrain":13025,"Ġstrange":13026,"ĠHerbert":13027,"Ġannoy":13028,"ĠMegan":13029,"ĠClair":13030,"Ġcareers":13031,"Ġdrink":13032,"Ġversus":13033,"Ġpossessed":13034,"Ġconfident":13035,"Ġconfluence":13036,"Ġthirds":13037,"Ġreflection":13038,"ĠMusical":13039,"ĠQi":13040,"Ġrequiring":13041,"ĠMcK":13042,"ĠManager":13043,"levard":13044,"ĠOrtona":13045,"Ġcontracted":13046,"Ġmidfield":13047,"Ġtownship":13048,"Ġarchipelago":13049,"Ġdelays":13050,"Ġvictorious":13051,"Ġprofound":13052,"Ġprojected":13053,"Ġobserve":13054,"Ġfarms":13055,"Ġfacts":13056,"Ġcharting":13057,"ĠMichaels":13058,"ambers":13059,"ĠBlackburn":13060,"ĠRegard":13061,"ĠRoyston":13062,"Ġconviction":13063,"Ġreadily":13064,"Ġsuffer":13065,"Ġsummit":13066,"ĠTowns":13067,"Ġpredict":13068,"Ġglac":13069,"Ġidentifies":13070,"Ġ1853":13071,"Ġ1858":13072,"commun":13073,"Ġswitch":13074,"Ġcreature":13075,"Ġ1885":13076,"ĠPlaying":13077,"ĠDuarte":13078,"Ġfortified":13079,"alties":13080,"ĠMostar":13081,"Ġrebel":13082,"umping":13083,"Ġthinks":13084,"ĠWilf":13085,"Ġmerged":13086,"ĠKhoo":13087,"Ġdiscussing":13088,"Ġdiscussions":13089,"Ġremoving":13090,"Ġdissolution":13091,"Ġliterally":13092,"ĠFilms":13093,"Ġcruise":13094,"Ġdropping":13095,"Ġ750":13096,"Ġensuing":13097,"ĠFinland":13098,"Ġcomplained":13099,"ĠCatholicism":13100,"Ġcelebration":13101,"ĠItalians":13102,"Ġinvestigated":13103,"Ġphotography":13104,"Ġsalmon":13105,"Ġgraphs":13106,"ĠDamage":13107,"Ġlifestyle":13108,"writer":13109,"ĠKrist":13110,"ĠReviewers":13111,"Ġdynam":13112,"ĠBolton":13113,"ĠControl":13114,"ĠAvtovac":13115,"Ġlegislature":13116,"Ġneutrino":13117,"Ġdeployment":13118,"Ġflee":13119,"Ġcomprises":13120,"Ġstrengthening":13121,"Ġpanels":13122,"ĠMorris":13123,"ĠAdditional":13124,"Ġstriker":13125,"ĠGiÃ£":13126,"Ġunusually":13127,"ĠMuslims":13128,"Ġcooler":13129,"Ġaccidentally":13130,"ĠSussex":13131,"Ġlawsuit":13132,"Ġeldest":13133,"Ġexercised":13134,"Ġmortar":13135,"Ġcommitment":13136,"ĠFelicia":13137,"Ġconducting":13138,"Ġbeside":13139,"Ġskeleton":13140,"Ġtraits":13141,"Ġnicknamed":13142,"ĠRosberg":13143,"Ġproceeds":13144,"Ġclouds":13145,"Ġmaintains":13146,"Ġconquered":13147,"Ġfloating":13148,"Ġacclaimed":13149,"ĠLaboratory":13150,"ĠMelbourne":13151,"Ġloyalty":13152,"ĠCulture":13153,"ĠBroncos":13154,"ĠJennifer":13155,"Ġorbital":13156,"ĠAPF":13157,"Ġresignation":13158,"Ġfrigate":13159,"Ġprolong":13160,"Ġerrors":13161,"Ġimprisoned":13162,"ĠExpressway":13163,"Ġnavigation":13164,"ĠParalympics":13165,"ĠNashville":13166,"ĠVeeru":13167,"Ġclusters":13168,"Ġumpire":13169,"ĠIndonesian":13170,"Ġneighborhoods":13171,"course":13172,"Ġsketch":13173,"Ġseventeen":13174,"Ġdodo":13175,"ĠNME":13176,"Ġveteran":13177,"ĠPhilippines":13178,"eveloped":13179,"ĠLoyalsock":13180,"Ġalgorith":13181,"ĠAssyrian":13182,"ĠRIAA":13183,"Ġabnormal":13184,"Ġdisliked":13185,"Ġincursion":13186,"ĠPokiri":13187,"Ġpoverty":13188,"ĠBoulder":13189,"ĠOjibwe":13190,"ĠVettel":13191,"Ġenvelope":13192,"Ġambitious":13193,"cade":13194,"dict":13195,"eus":13196,"fens":13197,"gence":13198,"ggy":13199,"hanna":13200,"lix":13201,"layer":13202,"mund":13203,"say":13204,"ua":13205,"zing":13206,"Ġtheolog":13207,"Ġtheories":13208,"render":13209,"Ġsinking":13210,"Ġcel":13211,"Ġcock":13212,"Ġfing":13213,"Ġbot":13214,"Ġbite":13215,"ingham":13216,"asant":13217,"Ġtoy":13218,"Ġmit":13219,"Ġmad":13220,"rov":13221,"Ġhate":13222,"Ġhier":13223,"Ġhunt":13224,"leted":13225,"ĠTun":13226,"ĠTob":13227,"Ġthorough":13228,"ĠAren":13229,"ĠSau":13230,"sters":13231,"Ġlion":13232,"Ġlighter":13233,"Ġease":13234,"elin":13235,"adir":13236,"ĠMI":13237,"ĠMend":13238,"Ġgif":13239,"oles":13240,"olly":13241,"olph":13242,"ĠBorough":13243,"ĠBoca":13244,"imol":13245,"ĠHang":13246,"ĠHutch":13247,"ĠHappy":13248,"usanag":13249,"otilla":13250,"ĠPD":13251,"ĠPear":13252,"ĠRound":13253,"ĠRuth":13254,"Ġalbe":13255,"ĠFur":13256,"ĠFisc":13257,"ĠFiction":13258,"ĠDh":13259,"employ":13260,"ĠWang":13261,"ĠWany":13262,"ĠWemb":13263,"ĠLakes":13264,"ĠLands":13265,"ĠLED":13266,"avor":13267,"avan":13268,"Ġseed":13269,"Ġsear":13270,"Ġri":13271,"Ġrises":13272,"Ġrandom":13273,"ĠOst":13274,"rifield":13275,"Ġproced":13276,"Ġvig":13277,"Ġvoyage":13278,"aki":13279,"akers":13280,"Ġexpense":13281,"about":13282,"ques":13283,"quet":13284,"Ġkids":13285,"ĠKet":13286,"ĠKod":13287,"ĠKusanag":13288,"Ġleaf":13289,"Ġtraces":13290,"iano":13291,"ĠChu":13292,"ĠChau":13293,"Ġunemploy":13294,"ĠVI":13295,"ĠVoice":13296,"orms":13297,"ĠHend":13298,"Ġrecapt":13299,"plain":13300,"Ġdisch":13301,"Ġdisorder":13302,"Ġjumps":13303,"Ġjealous":13304,"angered":13305,"Ġspor":13306,"Ġspite":13307,"Ġspelled":13308,"Ġenable":13309,"izers":13310,"ĠYoko":13311,"Ġallies":13312,"ensional":13313,"Ġbeta":13314,"Ġbetray":13315,"Ġrelocated":13316,"Ġcolored":13317,"Ġverb":13318,"Ġpeer":13319,"Ġformations":13320,"Ġaccord":13321,"Ġsubstances":13322,"Ġactively":13323,"Ġhighlights":13324,"ĠBrigadier":13325,"Ġmonk":13326,"Ġ173":13327,"ĠIndians":13328,"Ġinstances":13329,"ĠAustin":13330,"ĠGerald":13331,"Ġinfl":13332,"Ġinflicted":13333,"Ġprovisions":13334,"ĠFranz":13335,"Ġmetals":13336,"Ġmetaph":13337,"Ġ131":13338,"Ġvariant":13339,"ĠTrad":13340,"Ġtyphoon":13341,"Ġtopological":13342,"Ġtracking":13343,"nery":13344,"plex":13345,"Ġbreast":13346,"Ġcaptivity":13347,"ussion":13348,"ĠPeggy":13349,"quehanna":13350,"Ġeastward":13351,"Ġcompetitor":13352,"ĠPerth":13353,"Ġframes":13354,"Ġforever":13355,"Ġtroubles":13356,"Ġaffection":13357,"Ġpatients":13358,"Ġequally":13359,"ĠAirlines":13360,"Ġtraditionally":13361,"ĠOliver":13362,"ĠHamar":13363,"Ġcellular":13364,"ĠExpl":13365,"Äģh":13366,"Ġswing":13367,"Ġseparation":13368,"Ġquarters":13369,"Ġwidth":13370,"Ġcollision":13371,"Ġreasoning":13372,"ĠOlivia":13373,"ĠOdys":13374,"ĠGalile":13375,"Ġneglected":13376,"Ġcivilization":13377,"Ġthreatening":13378,"Ġclearing":13379,"Ġ1838":13380,"ĠDrive":13381,"Ġphysically":13382,"Ġeducated":13383,"Ġ1847":13384,"Ġgraduating":13385,"Ġparticipating":13386,"Ġvisitor":13387,"irtz":13388,"ĠOffensive":13389,"Ġconcludes":13390,"Ġembry":13391,"Ġcolonists":13392,"Ġ330":13393,"ĠMerrifield":13394,"Ġshoots":13395,"Ġsuspic":13396,"Ġthickness":13397,"Ġacquis":13398,"Ġacquire":13399,"Ġnuclei":13400,"Ġdigit":13401,"ĠArchitect":13402,"Ġparks":13403,"ĠSurrender":13404,"ĠColonna":13405,"Ġironcl":13406,"Ġmultiplayer":13407,"Ġmanufactured":13408,"Ġharbor":13409,"ĠFourth":13410,"Ġpreparations":13411,"Ġraids":13412,"ĠKentucky":13413,"Ġbelongs":13414,"jection":13415,"jections":13416,"ĠWritten":13417,"ĠChapman":13418,"Ġremixed":13419,"Ġoxid":13420,"swick":13421,"Ġtactic":13422,"Ġtactical":13423,"ĠRevolutionary":13424,"Ġrows":13425,"Ġecosy":13426,"Ġunpop":13427,"Ġprotagonists":13428,"Ġeasier":13429,"ĠKnights":13430,"Ġmistake":13431,"Ġsnake":13432,"ĠSusquehanna":13433,"Ġundertook":13434,"Ġsailing":13435,"Ġpolyg":13436,"Ġhairst":13437,"Ġevacuation":13438,"Ġevacuate":13439,"Ġsubstantially":13440,"ĠWinds":13441,"ĠVolunte":13442,"ĠWarsaw":13443,"Ġprosper":13444,"ĠMotor":13445,"ĠHungary":13446,"Ġcoordinated":13447,"Ġwarships":13448,"hmirtz":13449,"ĠKaram":13450,"Ġdimensional":13451,"Ġjackrabbits":13452,"Ġremembered":13453,"Ġadmits":13454,"Ġimprisonment":13455,"osomes":13456,"Ġelderly":13457,"ĠPleasure":13458,"Ġcarriages":13459,"ÅĤaw":13460,"Ġwelcome":13461,"ĠDiego":13462,"Ġswimming":13463,"Ġbarracks":13464,"ĠAlbion":13465,"ĠYellowstone":13466,"Ġfacilit":13467,"Ġdisappointed":13468,"ĠMunich":13469,"ĠFemale":13470,"Ġsympathetic":13471,"Ġprosecution":13472,"Ġanticipated":13473,"ĠDrama":13474,"ĠMortimer":13475,"ĠDoofens":13476,"Ġspawned":13477,"Ġluminosity":13478,"Ġstanza":13479,"Ġamphibious":13480,"ĠDestroyer":13481,"Ġpseud":13482,"ĠBrunswick":13483,"Ġchancel":13484,"ĠChopin":13485,"Ġtelephone":13486,"ĠBrothers":13487,"ĠSymphony":13488,"ĠHomar":13489,"Ġbronze":13490,"ĠTucker":13491,"Ġalcohol":13492,"ĠFerrari":13493,"Ġextraordinary":13494,"ĠLithuanian":13495,"ĠNFL":13496,"Ġmaneu":13497,"ĠMuhammad":13498,"Ġalbeit":13499,"ĠFischer":13500,"ĠWanyan":13501,"ĠWembley":13502,"ĠKusanagi":13503,"ĠChauvel":13504,"Ġecosystem":13505,"ĠDoofenshmirtz":13506,"Sh":13507,"Sp":13508,"aos":13509,"bard":13510,"cont":13511,"cairn":13512,"dam":13513,"dman":13514,"eb":13515,"eh":13516,"fam":13517,"gow":13518,"gna":13519,"hous":13520,"numbered":13521,"points":13522,"tures":13523,"erod":13524,"onald":13525,"onelli":13526,"rect":13527,"rels":13528,"Ġsank":13529,"Ġol":13530,"Ġoak":13531,"iture":13532,"Ġbishops":13533,"Ġinhib":13534,"Ġinex":13535,"aric":13536,"Ġpm":13537,"Ġpock":13538,"asury":13539,"asgow":13540,"Ġmating":13541,"Ġmasters":13542,"roc":13543,"rosoft":13544,"ici":13545,"ĠTed":13546,"Ġreh":13547,"Ġreorgan":13548,"entin":13549,"oub":13550,"ĠAval":13551,"ĠSit":13552,"ĠSic":13553,"ĠSag":13554,"ĠScl":13555,"ĠSomet":13556,"ĠSchol":13557,"ĠSovereign":13558,"Ġey":13559,"Ġeaten":13560,"Ġnons":13561,"ami":13562,"ĠClear":13563,"ĠCandid":13564,"ĠClement":13565,"ĠCatherine":13566,"ĠCAT":13567,"elih":13568,"acon":13569,"acrit":13570,"ĠMas":13571,"ĠMits":13572,"ĠMales":13573,"ĠMunicip":13574,"ĠMCC":13575,"ĠMoment":13576,"ĠIb":13577,"ĠIber":13578,"Ġgam":13579,"Ġgay":13580,"Ġgills":13581,"olving":13582,"olulu":13583,"tery":13584,"imination":13585,"ctic":13586,"iths":13587,"ĠHold":13588,"ĠHars":13589,"ĠHadd":13590,"heric":13591,"utors":13592,"ĠPil":13593,"ĠPra":13594,"ĠPric":13595,"ĠProp":13596,"ĠRaton":13597,"Ġconif":13598,"Ġconception":13599,"ĠWonder":13600,"andhi":13601,"ĠNature":13602,"ĠNumber":13603,"ĠGri":13604,"ĠGree":13605,"ĠGandhi":13606,"ĠLem":13607,"ĠLabyrinth":13608,"avis":13609,"ĠJai":13610,"Ġrice":13611,"ĠOri":13612,"apy":13613,"ante":13614,"anti":13615,"quis":13616,"quir":13617,"ĠâĢĺ":13618,"Ġye":13619,"ĠKend":13620,"Ġleather":13621,"ova":13622,"ĠStay":13623,"geant":13624,"osts":13625,"ellor":13626,"ĠChamber":13627,"Ġcompiled":13628,"Ġarcher":13629,"ogle":13630,"ĠVH":13631,"ĠViaduct":13632,"Ġrecruit":13633,"ĠThames":13634,"areth":13635,"Ġscales":13636,"Ġteaches":13637,"Ġupgr":13638,"Ġencom":13639,"acea":13640,"ensa":13641,"ĠRecon":13642,"ĠSeas":13643,"Ġfever":13644,"ĠArama":13645,"ugg":13646,"Ġcoloured":13647,"Ġfilmm":13648,"Ġendemic":13649,"Ġpecki":13650,"Ġregained":13651,"Ġassign":13652,"Ġassured":13653,"Ġspecially":13654,"ĠNewark":13655,"ĠNewcastle":13656,"ĠAmericas":13657,"Ġquake":13658,"obonelli":13659,"Ġgraves":13660,"Ġepit":13661,"Ġsynd":13662,"otherapy":13663,"Ġblame":13664,"annadh":13665,"Ġempty":13666,"Ġ171":13667,"Ġsignature":13668,"Ġterrible":13669,"Ġdiscour":13670,"ĠZhang":13671,"ĠZrÃŃ":13672,"Ġinfilt":13673,"Ġwarrant":13674,"ĠConnie":13675,"Ġinscribed":13676,"uclear":13677,"ucalypt":13678,"Ġnorthwestern":13679,"ĠPlensa":13680,"Ġ135":13681,"Ġguy":13682,"ĠColony":13683,"Ġsouthwestern":13684,"Ġmarble":13685,"Ġpossessions":13686,"ĠAndr":13687,"elta":13688,"Ġviewing":13689,"Ġissuing":13690,"ĠPradesh":13691,"Ġtrademark":13692,"Ġmyel":13693,"Ġcrimes":13694,"Ġbasement":13695,"Ġlowered":13696,"ĠPeriod":13697,"Ġ260":13698,"Ġstatute":13699,"Ġsolve":13700,"ĠAssist":13701,"Ġintroduce":13702,"Ġtourism":13703,"Ġprototype":13704,"Ġvillagers":13705,"ĠGlasgow":13706,"Ġsteambo":13707,"Ġsurvives":13708,"Ġrocky":13709,"Ġpredator":13710,"Ġfrontier":13711,"Ġassociations":13712,"ĠSupport":13713,"grim":13714,"Ġaveraging":13715,"Ġsuperst":13716,"Ġ1883":13717,"Ġhymn":13718,"ĠGameSp":13719,"Ġwidow":13720,"stituted":13721,"ĠCommando":13722,"ĠMedway":13723,"Ġfortifications":13724,"Ġpractical":13725,"Ġ1876":13726,"ĠCapcom":13727,"Ġviolacea":13728,"Ġhonest":13729,"araoh":13730,"ĠBrowns":13731,"Ġzero":13732,"Ġloose":13733,"Ġdiscusses":13734,"Ġ1837":13735,"ĠNotting":13736,"Ġdissent":13737,"Ġoccupies":13738,"ĠPrepar":13739,"Ġcruzi":13740,"enesis":13741,"Ġcalm":13742,"ĠAppro":13743,"Ġensued":13744,"ĠMetacrit":13745,"Ġaccessible":13746,"Ġcelebrity":13747,"Ġsilk":13748,"Ġsilent":13749,"Ġanalyzed":13750,"inental":13751,"Ġopted":13752,"ĠPittsburgh":13753,"ĠPitcairn":13754,"Ġjudged":13755,"Ġparking":13756,"limited":13757,"Ġincorrect":13758,"Ġinternet":13759,"ĠLiSA":13760,"Ġdrummer":13761,"ĠWildlife":13762,"Ġgrandson":13763,"Ġchemotherapy":13764,"ĠJosce":13765,"ĠSchm":13766,"ĠFantuzz":13767,"Ġwildlife":13768,"Ġprisoner":13769,"Ġmuseums":13770,"ĠChapter":13771,"ĠTrip":13772,"ĠTrials":13773,"Ġcollecting":13774,"Ġturret":13775,"Ġdressing":13776,"ĠPozz":13777,"ĠLarge":13778,"Ġdefinitely":13779,"Ġcomparable":13780,"ĠJeffrey":13781,"ĠCrowns":13782,"ĠMicrosoft":13783,"ĠEssex":13784,"ĠSusan":13785,"Ġoverlap":13786,"Ġdecreased":13787,"Ġbowlers":13788,"Ġfluid":13789,"ĠBroadcast":13790,"Ġdisturbed":13791,"ĠLowland":13792,"Ġrubble":13793,"ĠHuguen":13794,"Ġpalace":13795,"Ġpredecessors":13796,"Ġexpectations":13797,"Ġkingship":13798,"Ġconsequences":13799,"Ġvolunteer":13800,"ĠMarcus":13801,"ĠFeldman":13802,"Ġoutfit":13803,"ĠSavannah":13804,"Ġconquest":13805,"Ġsongwriting":13806,"ĠCooksey":13807,"ĠHunter":13808,"ĠStoppani":13809,"Ġreprinted":13810,"ĠYugoslav":13811,"Ġgardens":13812,"Ġsediment":13813,"Ġprolific":13814,"Ġdelegates":13815,"Ġpoisoning":13816,"Ġtackle":13817,"Ġcomedian":13818,"Ġinnovative":13819,"Ġcongregation":13820,"Ġnursery":13821,"ĠPowers":13822,"Ġparasites":13823,"ĠPublishing":13824,"Ġfossil":13825,"ĠNonetheless":13826,"Ġadaptations":13827,"Ġexplicitly":13828,"ĠPierre":13829,"Ġaerodromes":13830,"ĠLiterary":13831,"Ġrevenge":13832,"rhiz":13833,"ĠFriedrich":13834,"ĠJagannadh":13835,"Ġadequate":13836,"Ġentertaining":13837,"Ġdiscontinued":13838,"Ġgrammar":13839,"ĠAdriatic":13840,"Ġcontemporaries":13841,"ĠConstantinople":13842,"corrhiz":13843,"Ġreassigned":13844,"ĠCrystal":13845,"Ġstroke":13846,"ĠFletcher":13847,"Ġinconsist":13848,"Shara":13849,"ĠSaginaw":13850,"ĠSclerod":13851,"ĠSometimes":13852,"elihood":13853,"ĠMitsuda":13854,"ĠHarsha":13855,"ĠPrice":13856,"ĠGreece":13857,"Ġencompass":13858,"ĠAramaic":13859,"Ġpeckii":13860,"ĠZrÃŃnyi":13861,"ĠMetacritic":13862,"ĠFantuzzi":13863,"ĠPozzobonelli":13864,"LC":13865,"MC":13866,"iens":13867,"iating":13868,"iants":13869,"lon":13870,"lio":13871,"oons":13872,"raine":13873,"tron":13874,"ya":13875,"Ġ*":13876,"Ġu":13877,"Ġ~":13878,"Ġtag":13879,"Ġtiny":13880,"Ġtube":13881,"Ġoct":13882,"Ġfunk":13883,"Ġfab":13884,"Ġfib":13885,"enh":13886,"isd":13887,"esque":13888,"Ġbinary":13889,"Ġbapt":13890,"Ġborough":13891,"Ġbiblical":13892,"anim":13893,"anth":13894,"alo":13895,"Ġtool":13896,"Ġtough":13897,"Ġmock":13898,"Ġdiversity":13899,"Ġdrought":13900,"leki":13901,"ĠTar":13902,"ĠToy":13903,"ĠTests":13904,"ĠTimb":13905,"Ġrework":13906,"ĠSu":13907,"ĠSel":13908,"ĠSiber":13909,"Ġlakes":13910,"omon":13911,"ompe":13912,"Ġnests":13913,"ĠCu":13914,"ĠCore":13915,"ĠChes":13916,"Ġbeaches":13917,"ĠMann":13918,"ĠMÄģ":13919,"Ġgate":13920,"Ġgaming":13921,"ĠBach":13922,"imon":13923,"immer":13924,"ĠHi":13925,"ĠHÆ°Æ¡ng":13926,"ĠPel":13927,"ĠPompe":13928,"ĠRand":13929,"ĠRub":13930,"ĠRoll":13931,"ĠRanger":13932,"ĠFine":13933,"ĠFoster":13934,"ĠDJ":13935,"ĠDard":13936,"Ġcontend":13937,
[...]
